{
  "version": "1.0",
  "truncation": null,
  "padding": null,
  "added_tokens": [
    {
      "id": 0,
      "content": "[UNK]",
      "single_word": false,
      "lstrip": false,
      "rstrip": false,
      "normalized": false,
      "special": true
    },
    {
      "id": 1,
      "content": "[BOS]",
      "single_word": false,
      "lstrip": false,
      "rstrip": false,
      "normalized": false,
      "special": true
    },
    {
      "id": 2,
      "content": "[SEP]",
      "single_word": false,
      "lstrip": false,
      "rstrip": false,
      "normalized": false,
      "special": true
    },
    {
      "id": 3,
      "content": "[PAD]",
      "single_word": false,
      "lstrip": false,
      "rstrip": false,
      "normalized": false,
      "special": true
    },
    {
      "id": 4,
      "content": "[MASK]",
      "single_word": false,
      "lstrip": false,
      "rstrip": false,
      "normalized": false,
      "special": true
    },
    {
      "id": 5,
      "content": "[EOS]",
      "single_word": false,
      "lstrip": false,
      "rstrip": false,
      "normalized": false,
      "special": true
    }
  ],
  "normalizer": null,
  "pre_tokenizer": {
    "type": "Whitespace"
  },
  "post_processor": null,
  "decoder": null,
  "model": {
    "type": "BPE",
    "dropout": null,
    "unk_token": "[UNK]",
    "continuing_subword_prefix": null,
    "end_of_word_suffix": null,
    "fuse_unk": false,
    "byte_fallback": false,
    "ignore_merges": false,
    "vocab": {
      "[UNK]": 0,
      "[BOS]": 1,
      "[SEP]": 2,
      "[PAD]": 3,
      "[MASK]": 4,
      "[EOS]": 5,
      "!": 6,
      "\"": 7,
      "#": 8,
      "$": 9,
      "%": 10,
      "&": 11,
      "'": 12,
      "(": 13,
      ")": 14,
      "*": 15,
      "+": 16,
      ",": 17,
      "-": 18,
      ".": 19,
      "/": 20,
      "0": 21,
      "1": 22,
      "2": 23,
      "3": 24,
      "4": 25,
      "5": 26,
      "6": 27,
      "7": 28,
      "8": 29,
      "9": 30,
      ":": 31,
      ";": 32,
      "<": 33,
      "=": 34,
      ">": 35,
      "?": 36,
      "@": 37,
      "A": 38,
      "B": 39,
      "C": 40,
      "D": 41,
      "E": 42,
      "F": 43,
      "G": 44,
      "H": 45,
      "I": 46,
      "J": 47,
      "K": 48,
      "L": 49,
      "M": 50,
      "N": 51,
      "O": 52,
      "P": 53,
      "Q": 54,
      "R": 55,
      "S": 56,
      "T": 57,
      "U": 58,
      "V": 59,
      "W": 60,
      "X": 61,
      "Y": 62,
      "Z": 63,
      "[": 64,
      "\\": 65,
      "]": 66,
      "^": 67,
      "_": 68,
      "`": 69,
      "a": 70,
      "b": 71,
      "c": 72,
      "d": 73,
      "e": 74,
      "f": 75,
      "g": 76,
      "h": 77,
      "i": 78,
      "j": 79,
      "k": 80,
      "l": 81,
      "m": 82,
      "n": 83,
      "o": 84,
      "p": 85,
      "q": 86,
      "r": 87,
      "s": 88,
      "t": 89,
      "u": 90,
      "v": 91,
      "w": 92,
      "x": 93,
      "y": 94,
      "z": 95,
      "{": 96,
      "|": 97,
      "}": 98,
      "~": 99,
      "": 100,
      "th": 101,
      "in": 102,
      "er": 103,
      "an": 104,
      "00": 105,
      "the": 106,
      "on": 107,
      "re": 108,
      "at": 109,
      "en": 110,
      "or": 111,
      "st": 112,
      "ed": 113,
      "al": 114,
      "ou": 115,
      "ing": 116,
      "to": 117,
      "ar": 118,
      "is": 119,
      "it": 120,
      "es": 121,
      "of": 122,
      "and": 123,
      "as": 124,
      "0000": 125,
      "ic": 126,
      "le": 127,
      "ion": 128,
      "om": 129,
      "he": 130,
      "ent": 131,
      "se": 132,
      "il": 133,
      "ac": 134,
      "be": 135,
      "ve": 136,
      "ly": 137,
      "id": 138,
      "ro": 139,
      "ad": 140,
      "for": 141,
      "am": 142,
      "that": 143,
      "ch": 144,
      "ow": 145,
      "ay": 146,
      "wh": 147,
      "im": 148,
      "ig": 149,
      "ol": 150,
      "ver": 151,
      "ot": 152,
      "00000000": 153,
      "ut": 154,
      "un": 155,
      "de": 156,
      "ge": 157,
      "ith": 158,
      "ter": 159,
      "ce": 160,
      "ur": 161,
      "ir": 162,
      "ation": 163,
      "ab": 164,
      "ct": 165,
      "are": 166,
      "con": 167,
      "The": 168,
      "with": 169,
      "ne": 170,
      "us": 171,
      "li": 172,
      "pe": 173,
      "ke": 174,
      "ers": 175,
      "ere": 176,
      "mo": 177,
      "com": 178,
      "we": 179,
      "ha": 180,
      "ld": 181,
      "lo": 182,
      "ill": 183,
      "su": 184,
      "you": 185,
      "was": 186,
      "te": 187,
      "all": 188,
      "out": 189,
      "pro": 190,
      "ate": 191,
      "ri": 192,
      "op": 193,
      "res": 194,
      "ul": 195,
      "ment": 196,
      "pl": 197,
      "ag": 198,
      "fr": 199,
      "ap": 200,
      "ex": 201,
      "igh": 202,
      "ain": 203,
      "tr": 204,
      "oun": 205,
      "ust": 206,
      "one": 207,
      "sh": 208,
      "if": 209,
      "by": 210,
      "ts": 211,
      "so": 212,
      "his": 213,
      "ist": 214,
      "our": 215,
      "not": 216,
      "me": 217,
      "have": 218,
      "ess": 219,
      "fe": 220,
      "ity": 221,
      "ould": 222,
      "po": 223,
      "ll": 224,
      "ther": 225,
      "from": 226,
      "art": 227,
      "sa": 228,
      "this": 229,
      "um": 230,
      "ive": 231,
      "qu": 232,
      "per": 233,
      "ant": 234,
      "go": 235,
      "wor": 236,
      "ome": 237,
      "ast": 238,
      "end": 239,
      "000000000000": 240,
      "has": 241,
      "act": 242,
      "od": 243,
      "up": 244,
      "ack": 245,
      "do": 246,
      "ally": 247,
      "ie": 248,
      "ies": 249,
      "but": 250,
      "ear": 251,
      "por": 252,
      "ight": 253,
      "em": 254,
      "In": 255,
      "gh": 256,
      "ard": 257,
      "cl": 258,
      "any": 259,
      "co": 260,
      "ak": 261,
      "can": 262,
      "they": 263,
      "20": 264,
      "will": 265,
      "au": 266,
      "said": 267,
      "pr": 268,
      "el": 269,
      "ind": 270,
      "iv": 271,
      "gr": 272,
      "ans": 273,
      "who": 274,
      "ough": 275,
      "tim": 276,
      "ich": 277,
      "ame": 278,
      "Th": 279,
      "af": 280,
      "ial": 281,
      "ide": 282,
      "der": 283,
      "their": 284,
      "age": 285,
      "ok": 286,
      "more": 287,
      "now": 288,
      "ev": 289,
      "ice": 290,
      "et": 291,
      "ong": 292,
      "ound": 293,
      "ine": 294,
      "some": 295,
      "ous": 296,
      "est": 297,
      "ure": 298,
      "ud": 299,
      "bl": 300,
      "no": 301,
      "port": 302,
      "ions": 303,
      "bo": 304,
      "about": 305,
      "ber": 306,
      "off": 307,
      "ated": 308,
      "had": 309,
      "year": 310,
      "its": 311,
      "day": 312,
      "ire": 313,
      "cre": 314,
      "ore": 315,
      "which": 316,
      "were": 317,
      "ep": 318,
      "able": 319,
      "It": 320,
      "ia": 321,
      "would": 322,
      "way": 323,
      "thing": 324,
      "man": 325,
      "cr": 326,
      "ake": 327,
      "ck": 328,
      "ence": 329,
      "like": 330,
      "ass": 331,
      "very": 332,
      "15": 333,
      "own": 334,
      "other": 335,
      "iz": 336,
      "ach": 337,
      "been": 338,
      "av": 339,
      "work": 340,
      "An": 341,
      "pre": 342,
      "xt": 343,
      "ip": 344,
      "her": 345,
      "ace": 346,
      "ary": 347,
      "over": 348,
      "ign": 349,
      "ty": 350,
      "new": 351,
      "ite": 352,
      "Wh": 353,
      "str": 354,
      "ue": 355,
      "form": 356,
      "get": 357,
      "dis": 358,
      "comp": 359,
      "St": 360,
      "sp": 361,
      "19": 362,
      "my": 363,
      "pres": 364,
      "ail": 365,
      "int": 366,
      "ile": 367,
      "than": 368,
      "time": 369,
      "ople": 370,
      "pos": 371,
      "there": 372,
      "cont": 373,
      "ish": 374,
      "aw": 375,
      "cent": 376,
      "part": 377,
      "ser": 378,
      "ical": 379,
      "ree": 380,
      "also": 381,
      "what": 382,
      "them": 383,
      "Ch": 384,
      "ef": 385,
      "just": 386,
      "44": 387,
      "play": 388,
      "201": 389,
      "We": 390,
      "br": 391,
      "your": 392,
      "when": 393,
      "He": 394,
      "cor": 395,
      "people": 396,
      "fir": 397,
      "ble": 398,
      "tw": 399,
      "ations": 400,
      "ens": 401,
      "fer": 402,
      "inter": 403,
      "du": 404,
      "low": 405,
      "pol": 406,
      "ren": 407,
      "ction": 408,
      "ance": 409,
      "ase": 410,
      "say": 411,
      "pt": 412,
      "into": 413,
      "ick": 414,
      "ho": 415,
      "ink": 416,
      "mer": 417,
      "ian": 418,
      "old": 419,
      "mon": 420,
      "ory": 421,
      "most": 422,
      "sc": 423,
      "ang": 424,
      "how": 425,
      "spe": 426,
      "ition": 427,
      "ident": 428,
      "att": 429,
      "coun": 430,
      "back": 431,
      "cau": 432,
      "ob": 433,
      "amp": 434,
      "know": 435,
      "ade": 436,
      "ates": 437,
      "ful": 438,
      "ors": 439,
      "she": 440,
      "10": 441,
      "ra": 442,
      "after": 443,
      "This": 444,
      "cess": 445,
      "cause": 446,
      "og": 447,
      "min": 448,
      "ubl": 449,
      "But": 450,
      "first": 451,
      "ting": 452,
      "ose": 453,
      "him": 454,
      "could": 455,
      "vers": 456,
      "cur": 457,
      "ious": 458,
      "644": 459,
      "00000000000000": 460,
      "only": 461,
      "sel": 462,
      "txt": 463,
      "ustar": 464,
      "0000644": 465,
      "0ustar": 466,
      "txt0000644": 467,
      "txt000064400000000": 468,
      "ning": 469,
      "txt000064400000000000000000000": 470,
      "two": 471,
      "fore": 472,
      "ild": 473,
      "enc": 474,
      "bet": 475,
      "row": 476,
      "pp": 477,
      "mar": 478,
      "And": 479,
      "ater": 480,
      "--": 481,
      "med": 482,
      "oc": 483,
      "ry": 484,
      "Un": 485,
      ".\"": 486,
      "sy": 487,
      "des": 488,
      "Ne": 489,
      "comm": 490,
      "don": 491,
      "under": 492,
      "where": 493,
      "ph": 494,
      "fin": 495,
      "add": 496,
      "did": 497,
      "see": 498,
      "ict": 499,
      "bu": 500,
      "again": 501,
      "read": 502,
      "use": 503,
      "even": 504,
      "gu": 505,
      "Tr": 506,
      "14": 507,
      "si": 508,
      "reg": 509,
      "because": 510,
      "ise": 511,
      "ating": 512,
      "ason": 513,
      "..": 514,
      "come": 515,
      "tur": 516,
      "ual": 517,
      "je": 518,
      "years": 519,
      "ved": 520,
      "need": 521,
      "As": 522,
      "ublic": 523,
      "ving": 524,
      "rough": 525,
      "fl": 526,
      "Re": 527,
      "ents": 528,
      "call": 529,
      "land": 530,
      "reat": 531,
      "ress": 532,
      "dr": 533,
      "anc": 534,
      "ments": 535,
      "try": 536,
      ",\"": 537,
      "down": 538,
      "ks": 539,
      "many": 540,
      "every": 541,
      "col": 542,
      "200": 543,
      "used": 544,
      "make": 545,
      "then": 546,
      "look": 547,
      "vie": 548,
      "ins": 549,
      "these": 550,
      "incl": 551,
      "uch": 552,
      "dif": 553,
      "ener": 554,
      "cord": 555,
      "air": 556,
      "think": 557,
      "leg": 558,
      "iss": 559,
      "ever": 560,
      "12": 561,
      "hel": 562,
      "ult": 563,
      "being": 564,
      "want": 565,
      "os": 566,
      "De": 567,
      "ational": 568,
      "itt": 569,
      "red": 570,
      "well": 571,
      "though": 572,
      "may": 573,
      "cer": 574,
      "lect": 575,
      "tal": 576,
      "ath": 577,
      "ci": 578,
      "less": 579,
      "rel": 580,
      "long": 581,
      "ject": 582,
      "ps": 583,
      "state": 584,
      "through": 585,
      "last": 586,
      "arch": 587,
      "ative": 588,
      "set": 589,
      "Amer": 590,
      "ased": 591,
      ").": 592,
      "right": 593,
      "self": 594,
      "pers": 595,
      "For": 596,
      "Americ": 597,
      "aking": 598,
      "should": 599,
      "ited": 600,
      "ash": 601,
      "New": 602,
      "tain": 603,
      "show": 604,
      "ug": 605,
      "those": 606,
      "cho": 607,
      "sup": 608,
      "let": 609,
      "high": 610,
      "ump": 611,
      "ities": 612,
      "much": 613,
      "pect": 614,
      "cle": 615,
      "ran": 616,
      "par": 617,
      "You": 618,
      "ven": 619,
      "If": 620,
      "atch": 621,
      "uring": 622,
      "gover": 623,
      "car": 624,
      "does": 625,
      "ics": 626,
      "led": 627,
      "going": 628,
      "les": 629,
      "imp": 630,
      "wr": 631,
      "00000000000015": 632,
      "govern": 633,
      "13": 634,
      "fect": 635,
      "vis": 636,
      "fun": 637,
      "before": 638,
      "stand": 639,
      "16": 640,
      "ince": 641,
      "team": 642,
      "made": 643,
      "vel": 644,
      "ves": 645,
      "put": 646,
      "mem": 647,
      "lar": 648,
      "while": 649,
      "sur": 650,
      "wee": 651,
      "cond": 652,
      "view": 653,
      "ss": 654,
      "als": 655,
      "pon": 656,
      "ned": 657,
      "dec": 658,
      "ort": 659,
      "world": 660,
      "ced": 661,
      "such": 662,
      "ys": 663,
      "main": 664,
      "ma": 665,
      "ms": 666,
      "ific": 667,
      "txt0000644000000000000000000000": 668,
      "Al": 669,
      "game": 670,
      "di": 671,
      "ily": 672,
      "Con": 673,
      "17": 674,
      "),": 675,
      "18": 676,
      "30": 677,
      "lead": 678,
      "good": 679,
      "produ": 680,
      "ings": 681,
      "sub": 682,
      "tri": 683,
      "ff": 684,
      "stud": 685,
      "start": 686,
      "They": 687,
      "ular": 688,
      "ner": 689,
      "ility": 690,
      "ward": 691,
      "stem": 692,
      "char": 693,
      "ton": 694,
      "gan": 695,
      "Se": 696,
      "line": 697,
      "ually": 698,
      "run": 699,
      "against": 700,
      "test": 701,
      "cial": 702,
      "ters": 703,
      "includ": 704,
      "000": 705,
      "25": 706,
      "Ar": 707,
      "here": 708,
      "still": 709,
      "There": 710,
      "law": 711,
      "ood": 712,
      "illion": 713,
      "take": 714,
      "ween": 715,
      "head": 716,
      "ower": 717,
      "olog": 718,
      "says": 719,
      "real": 720,
      "differ": 721,
      "Le": 722,
      "point": 723,
      "la": 724,
      "oup": 725,
      "clo": 726,
      "cut": 727,
      "ub": 728,
      "Com": 729,
      "num": 730,
      "sign": 731,
      "That": 732,
      "offic": 733,
      "tem": 734,
      "ask": 735,
      "quest": 736,
      "No": 737,
      "ism": 738,
      "val": 739,
      "between": 740,
      "same": 741,
      "cons": 742,
      "chan": 743,
      "government": 744,
      "Is": 745,
      "serv": 746,
      "ollow": 747,
      "che": 748,
      "war": 749,
      "cap": 750,
      "ists": 751,
      "hand": 752,
      "trans": 753,
      "eng": 754,
      "cour": 755,
      "fact": 756,
      "So": 757,
      "help": 758,
      "io": 759,
      "velo": 760,
      "plan": 761,
      "system": 762,
      "50": 763,
      "ames": 764,
      "around": 765,
      "person": 766,
      "report": 767,
      "Trump": 768,
      "book": 769,
      "three": 770,
      "11": 771,
      "side": 772,
      "ax": 773,
      "uss": 774,
      "On": 775,
      "sm": 776,
      "ures": 777,
      "inst": 778,
      "Br": 779,
      "fam": 780,
      "wom": 781,
      "Mar": 782,
      "public": 783,
      "ave": 784,
      "prov": 785,
      "ouse": 786,
      "ten": 787,
      "app": 788,
      "found": 789,
      "really": 790,
      "ied": 791,
      "got": 792,
      "life": 793,
      "Jo": 794,
      "vest": 795,
      "pri": 796,
      "Fr": 797,
      "ket": 798,
      "press": 799,
      "sure": 800,
      "son": 801,
      "ways": 802,
      "US": 803,
      "peri": 804,
      "def": 805,
      "lot": 806,
      "sul": 807,
      "Be": 808,
      "happ": 809,
      "gest": 810,
      "place": 811,
      "fil": 812,
      "vol": 813,
      "plo": 814,
      "ost": 815,
      "24": 816,
      "both": 817,
      "big": 818,
      "ann": 819,
      "month": 820,
      "support": 821,
      "issu": 822,
      "find": 823,
      "king": 824,
      "power": 825,
      "ense": 826,
      "irect": 827,
      ".[": 828,
      "ale": 829,
      "loc": 830,
      "miss": 831,
      "cept": 832,
      "aren": 833,
      "alth": 834,
      "polit": 835,
      "develo": 836,
      "ices": 837,
      "too": 838,
      "ages": 839,
      "respon": 840,
      "ship": 841,
      "vi": 842,
      "week": 843,
      "during": 844,
      "appe": 845,
      "ft": 846,
      "ng": 847,
      "gener": 848,
      "net": 849,
      "follow": 850,
      "told": 851,
      "beli": 852,
      "top": 853,
      "ds": 854,
      "list": 855,
      "How": 856,
      "ces": 857,
      "season": 858,
      "ically": 859,
      "Cl": 860,
      "ared": 861,
      "ines": 862,
      "came": 863,
      "bre": 864,
      "stru": 865,
      "since": 866,
      "few": 867,
      "rest": 868,
      "using": 869,
      "incre": 870,
      "23": 871,
      "ider": 872,
      "contin": 873,
      "vot": 874,
      "akes": 875,
      "cording": 876,
      "aim": 877,
      "bers": 878,
      "bus": 879,
      "az": 880,
      "26": 881,
      "27": 882,
      "home": 883,
      "Ad": 884,
      "turn": 885,
      "At": 886,
      "national": 887,
      "ris": 888,
      "far": 889,
      "allow": 890,
      "ted": 891,
      "ban": 892,
      "tell": 893,
      "ata": 894,
      "pass": 895,
      "ues": 896,
      "something": 897,
      "commun": 898,
      "oot": 899,
      "vent": 900,
      "giv": 901,
      "ution": 902,
      "another": 903,
      "care": 904,
      "post": 905,
      "rele": 906,
      "ah": 907,
      "sol": 908,
      "clear": 909,
      "order": 910,
      "invest": 911,
      "different": 912,
      "each": 913,
      "open": 914,
      "chool": 915,
      "ized": 916,
      "bit": 917,
      "blo": 918,
      "child": 919,
      "camp": 920,
      "kill": 921,
      "ody": 922,
      "ready": 923,
      "jo": 924,
      "When": 925,
      "ient": 926,
      "things": 927,
      "Pro": 928,
      "search": 929,
      "gram": 930,
      "second": 931,
      "40": 932,
      "gy": 933,
      "ush": 934,
      "might": 935,
      "Sh": 936,
      "possi": 937,
      "ext": 938,
      "rent": 939,
      "contro": 940,
      "unt": 941,
      "never": 942,
      "best": 943,
      "called": 944,
      "cover": 945,
      "What": 946,
      "ime": 947,
      "next": 948,
      "ross": 949,
      "ls": 950,
      "iness": 951,
      "ize": 952,
      "ivers": 953,
      "ca": 954,
      "move": 955,
      "ars": 956,
      "pay": 957,
      "atter": 958,
      "times": 959,
      "dist": 960,
      "ness": 961,
      "ield": 962,
      "60": 963,
      "change": 964,
      "requ": 965,
      "sing": 966,
      "ger": 967,
      "ature": 968,
      "build": 969,
      "ier": 970,
      "hum": 971,
      "including": 972,
      "direct": 973,
      "seem": 974,
      "feel": 975,
      "ittle": 976,
      "percent": 977,
      "ights": 978,
      "ital": 979,
      "She": 980,
      "light": 981,
      "oper": 982,
      "lim": 983,
      "million": 984,
      "hard": 985,
      "develop": 986,
      "appro": 987,
      "conom": 988,
      "inform": 989,
      "To": 990,
      "resident": 991,
      "interest": 992,
      "resul": 993,
      "ball": 994,
      "ired": 995,
      "ix": 996,
      "men": 997,
      "pop": 998,
      "won": 999,
      "present": 1000,
      "oth": 1001,
      "without": 1002,
      "number": 1003,
      "case": 1004,
      "ele": 1005,
      "great": 1006,
      "ately": 1007,
      "four": 1008,
      "import": 1009,
      "sum": 1010,
      "proble": 1011,
      "bro": 1012,
      "ama": 1013,
      "country": 1014,
      "tech": 1015,
      "American": 1016,
      "ling": 1017,
      "ons": 1018,
      "dri": 1019,
      "better": 1020,
      "oney": 1021,
      "80": 1022,
      "partic": 1023,
      "Ro": 1024,
      "prom": 1025,
      "Rep": 1026,
      "level": 1027,
      "ably": 1028,
      "cri": 1029,
      "riend": 1030,
      "ished": 1031,
      "mil": 1032,
      "win": 1033,
      "ants": 1034,
      "sit": 1035,
      "recent": 1036,
      "70": 1037,
      "uro": 1038,
      "35": 1039,
      "little": 1040,
      "group": 1041,
      "left": 1042,
      "attack": 1043,
      "keep": 1044,
      "class": 1045,
      "prof": 1046,
      "hist": 1047,
      "Af": 1048,
      "ral": 1049,
      "ese": 1050,
      "fic": 1051,
      "uck": 1052,
      "22": 1053,
      "ency": 1054,
      "ark": 1055,
      "wit": 1056,
      "iting": 1057,
      "free": 1058,
      "effect": 1059,
      "organ": 1060,
      "jor": 1061,
      "claim": 1062,
      "hoto": 1063,
      "Ob": 1064,
      "didn": 1065,
      "nor": 1066,
      "den": 1067,
      "fac": 1068,
      "econom": 1069,
      "grow": 1070,
      "data": 1071,
      "Co": 1072,
      "body": 1073,
      "program": 1074,
      "tra": 1075,
      "ina": 1076,
      "90": 1077,
      "gre": 1078,
      "chang": 1079,
      "ports": 1080,
      "dep": 1081,
      "ont": 1082,
      "ord": 1083,
      "friend": 1084,
      "__": 1085,
      "school": 1086,
      "police": 1087,
      "plain": 1088,
      "ability": 1089,
      "near": 1090,
      "vious": 1091,
      "ather": 1092,
      "key": 1093,
      "rist": 1094,
      "based": 1095,
      "bal": 1096,
      "eas": 1097,
      "Pr": 1098,
      "spec": 1099,
      "atic": 1100,
      "ional": 1101,
      "minist": 1102,
      "ref": 1103,
      "expect": 1104,
      "inal": 1105,
      "Nor": 1106,
      "process": 1107,
      "thor": 1108,
      "company": 1109,
      "reason": 1110,
      "plic": 1111,
      "comple": 1112,
      "ats": 1113,
      "current": 1114,
      "pur": 1115,
      "hn": 1116,
      "ator": 1117,
      "One": 1118,
      "women": 1119,
      "hold": 1120,
      "president": 1121,
      "ending": 1122,
      "away": 1123,
      "small": 1124,
      "ided": 1125,
      "action": 1126,
      "coming": 1127,
      "28": 1128,
      "United": 1129,
      "rece": 1130,
      "var": 1131,
      "36": 1132,
      "later": 1133,
      "45": 1134,
      "aph": 1135,
      "vir": 1136,
      "ended": 1137,
      "city": 1138,
      "design": 1139,
      "why": 1140,
      "face": 1141,
      "99": 1142,
      "ern": 1143,
      "official": 1144,
      "ploy": 1145,
      "already": 1146,
      "business": 1147,
      "75": 1148,
      "ork": 1149,
      "story": 1150,
      "ives": 1151,
      "mocr": 1152,
      "Can": 1153,
      "Col": 1154,
      "making": 1155,
      "money": 1156,
      "adv": 1157,
      "ude": 1158,
      "health": 1159,
      "All": 1160,
      "always": 1161,
      "information": 1162,
      "techn": 1163,
      "ones": 1164,
      "bed": 1165,
      "whe": 1166,
      "ration": 1167,
      "und": 1168,
      "experi": 1169,
      "ago": 1170,
      "simp": 1171,
      "ute": 1172,
      "enter": 1173,
      "ards": 1174,
      "sever": 1175,
      "Bl": 1176,
      "elect": 1177,
      "tt": 1178,
      "major": 1179,
      "Mr": 1180,
      "ised": 1181,
      "job": 1182,
      "consider": 1183,
      "comes": 1184,
      "past": 1185,
      "project": 1186,
      "fort": 1187,
      "John": 1188,
      "aign": 1189,
      "hal": 1190,
      "cu": 1191,
      "cy": 1192,
      "bur": 1193,
      "ik": 1194,
      "days": 1195,
      "Pl": 1196,
      "Go": 1197,
      "ology": 1198,
      "kind": 1199,
      "...": 1200,
      "ged": 1201,
      "night": 1202,
      "que": 1203,
      "cost": 1204,
      "suc": 1205,
      "33": 1206,
      "ste": 1207,
      "bor": 1208,
      "must": 1209,
      "Car": 1210,
      "ample": 1211,
      "Pe": 1212,
      "important": 1213,
      "unch": 1214,
      "large": 1215,
      "Mo": 1216,
      "tax": 1217,
      "atur": 1218,
      "mor": 1219,
      "known": 1220,
      "Gr": 1221,
      "name": 1222,
      "edit": 1223,
      "qual": 1224,
      "doesn": 1225,
      "outh": 1226,
      "Li": 1227,
      "news": 1228,
      "happen": 1229,
      "working": 1230,
      "29": 1231,
      "ric": 1232,
      "gin": 1233,
      "acy": 1234,
      "position": 1235,
      "least": 1236,
      "late": 1237,
      "bas": 1238,
      "With": 1239,
      "May": 1240,
      "possible": 1241,
      "21": 1242,
      "remain": 1243,
      "Or": 1244,
      "family": 1245,
      "campaign": 1246,
      "mean": 1247,
      "enough": 1248,
      "ision": 1249,
      "cas": 1250,
      "ides": 1251,
      "Republic": 1252,
      "del": 1253,
      "field": 1254,
      "IS": 1255,
      "water": 1256,
      "likely": 1257,
      "record": 1258,
      "site": 1259,
      "vide": 1260,
      "human": 1261,
      "ribut": 1262,
      "ney": 1263,
      "polic": 1264,
      "deal": 1265,
      "exp": 1266,
      "political": 1267,
      "iversity": 1268,
      "Mc": 1269,
      "former": 1270,
      "Sy": 1271,
      "Ex": 1272,
      "until": 1273,
      "tar": 1274,
      "curity": 1275,
      "research": 1276,
      "certain": 1277,
      "ley": 1278,
      "eral": 1279,
      "tail": 1280,
      "ians": 1281,
      "ences": 1282,
      "Im": 1283,
      "76": 1284,
      "lear": 1285,
      "pot": 1286,
      "----": 1287,
      "posed": 1288,
      "took": 1289,
      "sex": 1290,
      "bar": 1291,
      "ror": 1292,
      "ey": 1293,
      "nal": 1294,
      "ird": 1295,
      "Euro": 1296,
      "ground": 1297,
      "President": 1298,
      "prote": 1299,
      "often": 1300,
      "sim": 1301,
      "Ind": 1302,
      "room": 1303,
      "give": 1304,
      "stop": 1305,
      "Bo": 1306,
      "sk": 1307,
      "ank": 1308,
      "nam": 1309,
      "actually": 1310,
      "ying": 1311,
      "ER": 1312,
      "34": 1313,
      "full": 1314,
      "inc": 1315,
      "pet": 1316,
      "become": 1317,
      "gen": 1318,
      "Don": 1319,
      "ster": 1320,
      "ined": 1321,
      "early": 1322,
      "ru": 1323,
      "according": 1324,
      "games": 1325,
      "After": 1326,
      "hour": 1327,
      "mind": 1328,
      "doing": 1329,
      "went": 1330,
      "Russ": 1331,
      "Ac": 1332,
      "non": 1333,
      "stre": 1334,
      "aid": 1335,
      "member": 1336,
      "seen": 1337,
      "Ph": 1338,
      "media": 1339,
      "Pol": 1340,
      "Ste": 1341,
      "Inter": 1342,
      "sug": 1343,
      "social": 1344,
      "aring": 1345,
      "crit": 1346,
      "ben": 1347,
      "graph": 1348,
      "65": 1349,
      "Mon": 1350,
      "charac": 1351,
      "having": 1352,
      "event": 1353,
      "five": 1354,
      "ization": 1355,
      "ali": 1356,
      "37": 1357,
      "ury": 1358,
      "une": 1359,
      "children": 1360,
      "100": 1361,
      "members": 1362,
      "uture": 1363,
      "eve": 1364,
      "course": 1365,
      "icle": 1366,
      "ib": 1367,
      "Some": 1368,
      "Wor": 1369,
      "players": 1370,
      "stit": 1371,
      "ither": 1372,
      "product": 1373,
      "ped": 1374,
      "success": 1375,
      "soci": 1376,
      "whether": 1377,
      "wer": 1378,
      "author": 1379,
      "today": 1380,
      "mber": 1381,
      "struct": 1382,
      "mid": 1383,
      "activ": 1384,
      "count": 1385,
      "Not": 1386,
      "Obama": 1387,
      "AT": 1388,
      "ought": 1389,
      "milit": 1390,
      "//": 1391,
      "York": 1392,
      "force": 1393,
      "question": 1394,
      "Europe": 1395,
      "2016": 1396,
      "meet": 1397,
      "several": 1398,
      "ensive": 1399,
      "sent": 1400,
      "contr": 1401,
      "idence": 1402,
      "Sp": 1403,
      "ns": 1404,
      "uc": 1405,
      "half": 1406,
      "aff": 1407,
      "aken": 1408,
      "ple": 1409,
      "State": 1410,
      "close": 1411,
      "example": 1412,
      "done": 1413,
      "along": 1414,
      "ories": 1415,
      "employ": 1416,
      "offer": 1417,
      "ential": 1418,
      "uary": 1419,
      "invol": 1420,
      "priv": 1421,
      "IN": 1422,
      "aged": 1423,
      "viol": 1424,
      "fund": 1425,
      "States": 1426,
      "Me": 1427,
      "cast": 1428,
      "understand": 1429,
      "ler": 1430,
      "watch": 1431,
      "avail": 1432,
      "ked": 1433,
      "once": 1434,
      "Coun": 1435,
      "RE": 1436,
      "tion": 1437,
      "local": 1438,
      "asked": 1439,
      "young": 1440,
      "Christ": 1441,
      "within": 1442,
      "months": 1443,
      "05": 1444,
      "West": 1445,
      "ially": 1446,
      "fig": 1447,
      "among": 1448,
      "38": 1449,
      "sour": 1450,
      "concer": 1451,
      "ron": 1452,
      "However": 1453,
      "mand": 1454,
      "Man": 1455,
      "acc": 1456,
      "Fe": 1457,
      "house": 1458,
      "64": 1459,
      "thought": 1460,
      "2015": 1461,
      "gether": 1462,
      "ilar": 1463,
      "mus": 1464,
      "While": 1465,
      "future": 1466,
      "investig": 1467,
      "yet": 1468,
      "plac": 1469,
      "orig": 1470,
      "given": 1471,
      "ague": 1472,
      "short": 1473,
      "ints": 1474,
      "means": 1475,
      "Sen": 1476,
      "problem": 1477,
      "fail": 1478,
      "77": 1479,
      "vert": 1480,
      "Democr": 1481,
      "En": 1482,
      "Dr": 1483,
      "95": 1484,
      "ified": 1485,
      "fully": 1486,
      "ots": 1487,
      "web": 1488,
      "pat": 1489,
      "community": 1490,
      "ulation": 1491,
      "issue": 1492,
      "Te": 1493,
      "gress": 1494,
      "fed": 1495,
      "House": 1496,
      "market": 1497,
      "My": 1498,
      "fight": 1499,
      "train": 1500,
      "legal": 1501,
      "mit": 1502,
      "across": 1503,
      "prob": 1504,
      "augh": 1505,
      "ivid": 1506,
      "video": 1507,
      "suggest": 1508,
      "makes": 1509,
      "party": 1510,
      "itive": 1511,
      "reported": 1512,
      "00000000000014": 1513,
      "wal": 1514,
      "ium": 1515,
      "step": 1516,
      "fur": 1517,
      "getting": 1518,
      "Min": 1519,
      "star": 1520,
      "ators": 1521,
      "dro": 1522,
      "Do": 1523,
      "ene": 1524,
      "others": 1525,
      "control": 1526,
      "hy": 1527,
      "spo": 1528,
      "strong": 1529,
      "depend": 1530,
      "AN": 1531,
      "deb": 1532,
      "dev": 1533,
      "together": 1534,
      "believe": 1535,
      "gl": 1536,
      "University": 1537,
      "descri": 1538,
      "Mic": 1539,
      "ible": 1540,
      "ane": 1541,
      "announ": 1542,
      "gun": 1543,
      "reach": 1544,
      "love": 1545,
      "ove": 1546,
      "fall": 1547,
      "2014": 1548,
      "ison": 1549,
      "ising": 1550,
      "nes": 1551,
      "har": 1552,
      "term": 1553,
      "available": 1554,
      "indust": 1555,
      "mal": 1556,
      "trad": 1557,
      "ony": 1558,
      "ington": 1559,
      "foot": 1560,
      "ister": 1561,
      "particular": 1562,
      "disc": 1563,
      "hind": 1564,
      "War": 1565,
      "iety": 1566,
      "ived": 1567,
      "live": 1568,
      "pret": 1569,
      "death": 1570,
      "aster": 1571,
      "bad": 1572,
      "America": 1573,
      "foc": 1574,
      "ured": 1575,
      "looking": 1576,
      "front": 1577,
      "started": 1578,
      "met": 1579,
      "cal": 1580,
      "98": 1581,
      "sl": 1582,
      "mot": 1583,
      "load": 1584,
      "access": 1585,
      "history": 1586,
      ".,": 1587,
      "mom": 1588,
      "safe": 1589,
      "Ju": 1590,
      "kes": 1591,
      "66": 1592,
      "complete": 1593,
      "ming": 1594,
      "Bar": 1595,
      "Now": 1596,
      "hit": 1597,
      "ond": 1598,
      "series": 1599,
      "hip": 1600,
      "74": 1601,
      "almost": 1602,
      "bi": 1603,
      "anal": 1604,
      "following": 1605,
      "selves": 1606,
      "Canad": 1607,
      "pract": 1608,
      "iter": 1609,
      "wa": 1610,
      "ances": 1611,
      "ON": 1612,
      "trying": 1613,
      "mission": 1614,
      "Just": 1615,
      "Ser": 1616,
      "Har": 1617,
      "gn": 1618,
      "security": 1619,
      "idea": 1620,
      "uses": 1621,
      "These": 1622,
      "isn": 1623,
      "Ger": 1624,
      "six": 1625,
      "aft": 1626,
      "added": 1627,
      "round": 1628,
      "cell": 1629,
      "rul": 1630,
      "area": 1631,
      "fav": 1632,
      "crim": 1633,
      "ination": 1634,
      "compan": 1635,
      "conne": 1636,
      "vo": 1637,
      "experience": 1638,
      "By": 1639,
      "tow": 1640,
      "Sun": 1641,
      "taken": 1642,
      "itions": 1643,
      "tom": 1644,
      "player": 1645,
      "55": 1646,
      "Res": 1647,
      "proper": 1648,
      "court": 1649,
      "Eng": 1650,
      "Ge": 1651,
      "North": 1652,
      "32": 1653,
      "anything": 1654,
      "space": 1655,
      "fire": 1656,
      "itional": 1657,
      "48": 1658,
      "individ": 1659,
      "ustom": 1660,
      "return": 1661,
      "pick": 1662,
      "ww": 1663,
      "Dep": 1664,
      "inton": 1665,
      "sof": 1666,
      "Isra": 1667,
      "publ": 1668,
      "aper": 1669,
      "taking": 1670,
      "saying": 1671,
      "black": 1672,
      "bill": 1673,
      "threat": 1674,
      "argu": 1675,
      "His": 1676,
      "sal": 1677,
      "board": 1678,
      "similar": 1679,
      "ded": 1680,
      "photo": 1681,
      "block": 1682,
      "ams": 1683,
      "defin": 1684,
      "wanted": 1685,
      "break": 1686,
      "date": 1687,
      "behind": 1688,
      "uge": 1689,
      "ecut": 1690,
      "08": 1691,
      "Dav": 1692,
      "film": 1693,
      "military": 1694,
      "fa": 1695,
      "impro": 1696,
      "entire": 1697,
      "ference": 1698,
      "dom": 1699,
      "ched": 1700,
      "exist": 1701,
      "World": 1702,
      "dit": 1703,
      "Gu": 1704,
      "food": 1705,
      "road": 1706,
      "78": 1707,
      "rather": 1708,
      "turned": 1709,
      "discuss": 1710,
      "mess": 1711,
      "2013": 1712,
      "colle": 1713,
      "mult": 1714,
      "31": 1715,
      "tries": 1716,
      "ges": 1717,
      "Brit": 1718,
      "39": 1719,
      "cret": 1720,
      "National": 1721,
      "wide": 1722,
      "flu": 1723,
      "study": 1724,
      "works": 1725,
      "aver": 1726,
      "individual": 1727,
      "sty": 1728,
      "woman": 1729,
      "bring": 1730,
      "points": 1731,
      "single": 1732,
      "reed": 1733,
      "explain": 1734,
      "policy": 1735,
      "special": 1736,
      "Clinton": 1737,
      "quick": 1738,
      "ott": 1739,
      "version": 1740,
      "previous": 1741,
      "band": 1742,
      "roll": 1743,
      "City": 1744,
      "check": 1745,
      "stri": 1746,
      "rad": 1747,
      "imate": 1748,
      "Sc": 1749,
      "someone": 1750,
      "lier": 1751,
      "Aust": 1752,
      "scre": 1753,
      "paren": 1754,
      "text": 1755,
      "uni": 1756,
      "2012": 1757,
      "ae": 1758,
      "dest": 1759,
      "imm": 1760,
      "AS": 1761,
      "Wash": 1762,
      "AR": 1763,
      "ock": 1764,
      "ull": 1765,
      "attem": 1766,
      "htt": 1767,
      "glo": 1768,
      "probably": 1769,
      "agree": 1770,
      "46": 1771,
      "nothing": 1772,
      "sus": 1773,
      "redu": 1774,
      "phone": 1775,
      "dam": 1776,
      "cially": 1777,
      "else": 1778,
      "box": 1779,
      "enn": 1780,
      "**": 1781,
      "tee": 1782,
      "2017": 1783,
      "wards": 1784,
      "create": 1785,
      "comb": 1786,
      "service": 1787,
      "Part": 1788,
      "ald": 1789,
      "BC": 1790,
      "Jan": 1791,
      "ES": 1792,
      "decl": 1793,
      "ids": 1794,
      "due": 1795,
      "protect": 1796,
      "rights": 1797,
      "equ": 1798,
      "viron": 1799,
      "://": 1800,
      "sell": 1801,
      "signific": 1802,
      "docu": 1803,
      ".)": 1804,
      "exper": 1805,
      "artment": 1806,
      "ention": 1807,
      "third": 1808,
      "detail": 1809,
      "iday": 1810,
      "benef": 1811,
      "played": 1812,
      "Washington": 1813,
      "share": 1814,
      "gain": 1815,
      "either": 1816,
      "uff": 1817,
      "mass": 1818,
      "however": 1819,
      "lies": 1820,
      "rote": 1821,
      "Wil": 1822,
      "South": 1823,
      "anger": 1824,
      "issues": 1825,
      "sen": 1826,
      "decision": 1827,
      "Fl": 1828,
      "role": 1829,
      "Je": 1830,
      "host": 1831,
      "lish": 1832,
      "conf": 1833,
      "ana": 1834,
      "feat": 1835,
      "ham": 1836,
      "wrote": 1837,
      "chall": 1838,
      "cop": 1839,
      "ox": 1840,
      "meas": 1841,
      "result": 1842,
      "ging": 1843,
      "init": 1844,
      "stat": 1845,
      "dou": 1846,
      "attle": 1847,
      "rate": 1848,
      "sound": 1849,
      "amoun": 1850,
      "cul": 1851,
      "begin": 1852,
      "ret": 1853,
      "further": 1854,
      "represent": 1855,
      "common": 1856,
      "gets": 1857,
      "hope": 1858,
      "Tim": 1859,
      "final": 1860,
      "tit": 1861,
      "draw": 1862,
      "utes": 1863,
      "building": 1864,
      "match": 1865,
      "track": 1866,
      "ife": 1867,
      "cand": 1868,
      "ender": 1869,
      "everything": 1870,
      "Med": 1871,
      "68": 1872,
      "true": 1873,
      "states": 1874,
      "released": 1875,
      "whole": 1876,
      "word": 1877,
      "inste": 1878,
      "seems": 1879,
      "pie": 1880,
      "white": 1881,
      "companies": 1882,
      "type": 1883,
      "dle": 1884,
      "Sep": 1885,
      "ford": 1886,
      "tic": 1887,
      "leaders": 1888,
      "amer": 1889,
      "matter": 1890,
      "China": 1891,
      "federal": 1892,
      "pite": 1893,
      "character": 1894,
      "development": 1895,
      "News": 1896,
      "Per": 1897,
      "custom": 1898,
      "Par": 1899,
      "Mus": 1900,
      "specific": 1901,
      "statement": 1902,
      "itted": 1903,
      "personal": 1904,
      "ai": 1905,
      "anti": 1906,
      "49": 1907,
      "execut": 1908,
      "pen": 1909,
      "bb": 1910,
      "reme": 1911,
      "ively": 1912,
      "ivil": 1913,
      "students": 1914,
      "uation": 1915,
      "jud": 1916,
      "anim": 1917,
      "playing": 1918,
      "email": 1919,
      "Twit": 1920,
      "oups": 1921,
      "outside": 1922,
      "general": 1923,
      "lam": 1924,
      "vision": 1925,
      "saw": 1926,
      "began": 1927,
      "running": 1928,
      "47": 1929,
      "above": 1930,
      "officials": 1931,
      "mag": 1932,
      "office": 1933,
      "address": 1934,
      "appear": 1935,
      "town": 1936,
      "aut": 1937,
      "asing": 1938,
      "administ": 1939,
      "ctor": 1940,
      "link": 1941,
      "hours": 1942,
      "lab": 1943,
      "urs": 1944,
      "continue": 1945,
      "provide": 1946,
      "ently": 1947,
      "ief": 1948,
      "lock": 1949,
      "himself": 1950,
      "forward": 1951,
      "inj": 1952,
      "typ": 1953,
      "launch": 1954,
      "mis": 1955,
      "shot": 1956,
      "lement": 1957,
      "Face": 1958,
      "significant": 1959,
      "vironment": 1960,
      "deli": 1961,
      "Cor": 1962,
      "itself": 1963,
      "uel": 1964,
      "White": 1965,
      "held": 1966,
      "profess": 1967,
      "sequ": 1968,
      "themselves": 1969,
      "value": 1970,
      "drug": 1971,
      "worth": 1972,
      "ried": 1973,
      "became": 1974,
      "ify": 1975,
      "wind": 1976,
      "wasn": 1977,
      "lt": 1978,
      "199": 1979,
      "simply": 1980,
      "hor": 1981,
      "countries": 1982,
      "changes": 1983,
      "sco": 1984,
      "Twitter": 1985,
      "words": 1986,
      "TV": 1987,
      "espe": 1988,
      "angu": 1989,
      "election": 1990,
      "diffic": 1991,
      "groups": 1992,
      "TH": 1993,
      "needed": 1994,
      "ior": 1995,
      "pose": 1996,
      "log": 1997,
      "range": 1998,
      "reco": 1999,
      "evidence": 2000,
      "interview": 2001,
      "release": 2002,
      "quar": 2003,
      "especially": 2004,
      "music": 2005,
      "needs": 2006,
      "relation": 2007,
      "everyone": 2008,
      "tru": 2009,
      "Am": 2010,
      "function": 2011,
      "energy": 2012,
      "ands": 2013,
      "ager": 2014,
      "expected": 2015,
      "code": 2016,
      "ctions": 2017,
      "contain": 2018,
      "ze": 2019,
      "ogle": 2020,
      "continu": 2021,
      "audi": 2022,
      "App": 2023,
      "approach": 2024,
      "ades": 2025,
      "shows": 2026,
      "financ": 2027,
      "include": 2028,
      "medi": 2029,
      "below": 2030,
      "pain": 2031,
      "stay": 2032,
      "rac": 2033,
      "vote": 2034,
      "talk": 2035,
      "06": 2036,
      "pretty": 2037,
      "AC": 2038,
      "ilt": 2039,
      "quite": 2040,
      "Em": 2041,
      "unity": 2042,
      "billion": 2043,
      "88": 2044,
      "ends": 2045,
      "super": 2046,
      "AM": 2047,
      "sense": 2048,
      "aul": 2049,
      "div": 2050,
      "ournal": 2051,
      "commit": 2052,
      "ption": 2053,
      "AP": 2054,
      "treat": 2055,
      "industry": 2056,
      "necess": 2057,
      "gir": 2058,
      "thod": 2059,
      "II": 2060,
      "economic": 2061,
      "push": 2062,
      "hol": 2063,
      "ience": 2064,
      "Facebook": 2065,
      "lost": 2066,
      "More": 2067,
      "candid": 2068,
      "nation": 2069,
      "accept": 2070,
      "shoot": 2071,
      "March": 2072,
      "educ": 2073,
      "cir": 2074,
      "quality": 2075,
      "==": 2076,
      "scri": 2077,
      "tre": 2078,
      "base": 2079,
      "strate": 2080,
      "dict": 2081,
      "da": 2082,
      "pack": 2083,
      "lower": 2084,
      "Here": 2085,
      "09": 2086,
      "vic": 2087,
      "instead": 2088,
      "alleg": 2089,
      "cit": 2090,
      "ners": 2091,
      "forman": 2092,
      "itch": 2093,
      "believ": 2094,
      "flo": 2095,
      "sess": 2096,
      "iding": 2097,
      "Su": 2098,
      "review": 2099,
      "urch": 2100,
      "ples": 2101,
      "hom": 2102,
      "2011": 2103,
      "compet": 2104,
      "explo": 2105,
      "total": 2106,
      "Aug": 2107,
      "bly": 2108,
      "relig": 2109,
      "actions": 2110,
      "Red": 2111,
      "respect": 2112,
      "serious": 2113,
      "Qu": 2114,
      "Ear": 2115,
      "soc": 2116,
      "79": 2117,
      "recently": 2118,
      "period": 2119,
      "phys": 2120,
      "soon": 2121,
      "opport": 2122,
      "weeks": 2123,
      "popular": 2124,
      "spir": 2125,
      "ament": 2126,
      "According": 2127,
      "Google": 2128,
      "AL": 2129,
      "June": 2130,
      "Of": 2131,
      "longer": 2132,
      "sw": 2133,
      "ping": 2134,
      "Des": 2135,
      "ee": 2136,
      "Republican": 2137,
      "wrong": 2138,
      "oud": 2139,
      "sed": 2140,
      "aging": 2141,
      "moved": 2142,
      "object": 2143,
      "lin": 2144,
      "tro": 2145,
      "terror": 2146,
      "Syri": 2147,
      "page": 2148,
      "cil": 2149,
      "moment": 2150,
      "Gre": 2151,
      "favor": 2152,
      "Photo": 2153,
      "04": 2154,
      "Department": 2155,
      "God": 2156,
      "goal": 2157,
      "ung": 2158,
      "online": 2159,
      "ties": 2160,
      "____": 2161,
      "Apr": 2162,
      "rup": 2163,
      "cult": 2164,
      "dead": 2165,
      "prim": 2166,
      "sha": 2167,
      "article": 2168,
      "Pal": 2169,
      "ino": 2170,
      "85": 2171,
      "duct": 2172,
      "higher": 2173,
      "Cong": 2174,
      "Oc": 2175,
      "potential": 2176,
      "ken": 2177,
      "Off": 2178,
      "gas": 2179,
      "scient": 2180,
      "July": 2181,
      "Fir": 2182,
      "Ed": 2183,
      "Tur": 2184,
      "rew": 2185,
      "famil": 2186,
      "surpr": 2187,
      "Act": 2188,
      "rown": 2189,
      "demand": 2190,
      "target": 2191,
      "comput": 2192,
      "killed": 2193,
      "friends": 2194,
      "risk": 2195,
      "tou": 2196,
      "results": 2197,
      "San": 2198,
      "kets": 2199,
      "services": 2200,
      "male": 2201,
      "OR": 2202,
      "express": 2203,
      "Hill": 2204,
      "Her": 2205,
      "applic": 2206,
      "Even": 2207,
      "account": 2208,
      "attempt": 2209,
      "pan": 2210,
      "via": 2211,
      "created": 2212,
      "Char": 2213,
      "Sm": 2214,
      "langu": 2215,
      "sold": 2216,
      "ba": 2217,
      "protest": 2218,
      "refer": 2219,
      "moder": 2220,
      "2010": 2221,
      "source": 2222,
      "difficult": 2223,
      "atives": 2224,
      "EN": 2225,
      "content": 2226,
      "easy": 2227,
      "performan": 2228,
      "Congress": 2229,
      "teach": 2230,
      "anyone": 2231,
      "hood": 2232,
      "OS": 2233,
      "minutes": 2234,
      "covered": 2235,
      "private": 2236,
      "Austral": 2237,
      "67": 2238,
      "ilities": 2239,
      "ugg": 2240,
      "reve": 2241,
      "lex": 2242,
      "technology": 2243,
      "speak": 2244,
      "environment": 2245,
      "haps": 2246,
      "comment": 2247,
      "Friday": 2248,
      "arm": 2249,
      "fast": 2250,
      "Cour": 2251,
      "earlier": 2252,
      "emp": 2253,
      "received": 2254,
      "apan": 2255,
      "David": 2256,
      "Spe": 2257,
      "oil": 2258,
      "Americans": 2259,
      "fair": 2260,
      "problems": 2261,
      "coup": 2262,
      "ange": 2263,
      "announced": 2264,
      "omb": 2265,
      "natur": 2266,
      "April": 2267,
      "ows": 2268,
      "coach": 2269,
      "amount": 2270,
      "na": 2271,
      "estab": 2272,
      "First": 2273,
      "cing": 2274,
      "firm": 2275,
      "ij": 2276,
      "increase": 2277,
      "Russia": 2278,
      "cannot": 2279,
      "Po": 2280,
      "questions": 2281,
      "contribut": 2282,
      "Lo": 2283,
      "civil": 2284,
      "Japan": 2285,
      "responsi": 2286,
      "involved": 2287,
      "cases": 2288,
      "alter": 2289,
      "club": 2290,
      "users": 2291,
      "fill": 2292,
      "original": 2293,
      "ring": 2294,
      "Post": 2295,
      "heav": 2296,
      "ites": 2297,
      "mater": 2298,
      "mark": 2299,
      "lines": 2300,
      "iple": 2301,
      "rain": 2302,
      "Donald": 2303,
      "East": 2304,
      "average": 2305,
      "verse": 2306,
      "opt": 2307,
      "IC": 2308,
      "nearly": 2309,
      "wish": 2310,
      "07": 2311,
      "exact": 2312,
      "Tues": 2313,
      "sil": 2314,
      "vict": 2315,
      "Israel": 2316,
      "Ab": 2317,
      "69": 2318,
      "response": 2319,
      "worked": 2320,
      "Geor": 2321,
      "intro": 2322,
      "deep": 2323,
      "living": 2324,
      "Monday": 2325,
      "counter": 2326,
      "workers": 2327,
      "relationship": 2328,
      "Mi": 2329,
      "broad": 2330,
      "Get": 2331,
      "itten": 2332,
      "cli": 2333,
      "published": 2334,
      "inside": 2335,
      "leave": 2336,
      "answer": 2337,
      "Tuesday": 2338,
      "global": 2339,
      "ires": 2340,
      "isl": 2341,
      "Cr": 2342,
      "lack": 2343,
      "Islam": 2344,
      "lying": 2345,
      "international": 2346,
      "bert": 2347,
      "Sch": 2348,
      "Wed": 2349,
      "regard": 2350,
      "spect": 2351,
      "arrest": 2352,
      "fans": 2353,
      "emer": 2354,
      "staff": 2355,
      "request": 2356,
      "nel": 2357,
      "dig": 2358,
      "inte": 2359,
      "associ": 2360,
      "collect": 2361,
      "price": 2362,
      "sem": 2363,
      "director": 2364,
      "bility": 2365,
      "Paul": 2366,
      "ery": 2367,
      "hop": 2368,
      "subject": 2369,
      "capital": 2370,
      "takes": 2371,
      "squ": 2372,
      "immedi": 2373,
      "decided": 2374,
      "reports": 2375,
      "weap": 2376,
      "chance": 2377,
      "43": 2378,
      "wood": 2379,
      "thern": 2380,
      "terms": 2381,
      "tember": 2382,
      "screen": 2383,
      "related": 2384,
      "El": 2385,
      "tor": 2386,
      "pict": 2387,
      "izing": 2388,
      "tellig": 2389,
      "42": 2390,
      "built": 2391,
      "exc": 2392,
      "indic": 2393,
      ");": 2394,
      "September": 2395,
      "financial": 2396,
      "termin": 2397,
      "production": 2398,
      "lied": 2399,
      "joy": 2400,
      "Stre": 2401,
      "onto": 2402,
      "mother": 2403,
      "size": 2404,
      "model": 2405,
      "January": 2406,
      "mode": 2407,
      "heart": 2408,
      "simple": 2409,
      "Phil": 2410,
      "currently": 2411,
      "nia": 2412,
      "Nove": 2413,
      "race": 2414,
      "IT": 2415,
      "hot": 2416,
      "buy": 2417,
      "active": 2418,
      "ech": 2419,
      "foreign": 2420,
      "influ": 2421,
      "bon": 2422,
      "goes": 2423,
      "cd": 2424,
      "gave": 2425,
      "west": 2426,
      "dol": 2427,
      "recogn": 2428,
      "Dis": 2429,
      "arri": 2430,
      "perform": 2431,
      "tool": 2432,
      "style": 2433,
      "whose": 2434,
      "\".": 2435,
      "Black": 2436,
      "aving": 2437,
      "father": 2438,
      "Then": 2439,
      "November": 2440,
      "Afr": 2441,
      "engine": 2442,
      "ffer": 2443,
      "require": 2444,
      "acts": 2445,
      "mp": 2446,
      "lay": 2447,
      "happened": 2448,
      "clus": 2449,
      "89": 2450,
      "die": 2451,
      "lives": 2452,
      "From": 2453,
      "ica": 2454,
      "performance": 2455,
      "material": 2456,
      "supp": 2457,
      "method": 2458,
      "loss": 2459,
      "Wednes": 2460,
      "ival": 2461,
      "events": 2462,
      "tober": 2463,
      "situation": 2464,
      "European": 2465,
      "tele": 2466,
      "56": 2467,
      "Court": 2468,
      "Thurs": 2469,
      "Canada": 2470,
      "felt": 2471,
      "\",": 2472,
      "Cali": 2473,
      "ky": 2474,
      "Star": 2475,
      "ED": 2476,
      "speed": 2477,
      "particip": 2478,
      "plans": 2479,
      "introdu": 2480,
      "nu": 2481,
      "meeting": 2482,
      "hear": 2483,
      "ID": 2484,
      "Wednesday": 2485,
      "ker": 2486,
      "August": 2487,
      "grad": 2488,
      "teams": 2489,
      "vertise": 2490,
      "trade": 2491,
      "October": 2492,
      "huge": 2493,
      "heard": 2494,
      "Russian": 2495,
      "card": 2496,
      "ny": 2497,
      "career": 2498,
      "Ho": 2499,
      "cup": 2500,
      "allowed": 2501,
      "UK": 2502,
      "image": 2503,
      "Thursday": 2504,
      "fell": 2505,
      "feature": 2506,
      "bot": 2507,
      "areas": 2508,
      "wel": 2509,
      "avo": 2510,
      "seven": 2511,
      "Our": 2512,
      "affect": 2513,
      "couple": 2514,
      "impact": 2515,
      "rid": 2516,
      "repe": 2517,
      "van": 2518,
      "Every": 2519,
      "Califor": 2520,
      "British": 2521,
      "mention": 2522,
      "thous": 2523,
      "stant": 2524,
      "--------": 2525,
      "letter": 2526,
      "Why": 2527,
      "victim": 2528,
      "Sunday": 2529,
      "inv": 2530,
      "istic": 2531,
      "struction": 2532,
      "improve": 2533,
      "gs": 2534,
      "store": 2535,
      "corpor": 2536,
      "quickly": 2537,
      "numbers": 2538,
      "connect": 2539,
      "science": 2540,
      "aled": 2541,
      "administration": 2542,
      "bud": 2543,
      "dy": 2544,
      "hi": 2545,
      "aily": 2546,
      "visit": 2547,
      "59": 2548,
      "ift": 2549,
      "58": 2550,
      "57": 2551,
      "wo": 2552,
      "Wal": 2553,
      "ases": 2554,
      "secret": 2555,
      "document": 2556,
      "Well": 2557,
      "ises": 2558,
      "Let": 2559,
      "atory": 2560,
      "print": 2561,
      "economy": 2562,
      "havi": 2563,
      "dd": 2564,
      "Cap": 2565,
      "OP": 2566,
      "separ": 2567,
      "leading": 2568,
      "promot": 2569,
      "written": 2570,
      "forces": 2571,
      "website": 2572,
      "spent": 2573,
      "perfect": 2574,
      "Fin": 2575,
      "cc": 2576,
      "http": 2577,
      "occur": 2578,
      "regular": 2579,
      "California": 2580,
      "500": 2581,
      "Up": 2582,
      "41": 2583,
      "liber": 2584,
      "user": 2585,
      "Hol": 2586,
      "morning": 2587,
      "Dece": 2588,
      "conduct": 2589,
      "neigh": 2590,
      "wants": 2591,
      "2008": 2592,
      "AD": 2593,
      "knew": 2594,
      "ological": 2595,
      "movement": 2596,
      "porters": 2597,
      "paid": 2598,
      "Satur": 2599,
      "December": 2600,
      "included": 2601,
      "prison": 2602,
      "Kore": 2603,
      "rect": 2604,
      "0000000000000": 2605,
      "tour": 2606,
      "respond": 2607,
      "growth": 2608,
      "population": 2609,
      "progress": 2610,
      "mist": 2611,
      "hael": 2612,
      "iment": 2613,
      "legisl": 2614,
      "prevent": 2615,
      "tried": 2616,
      "Tex": 2617,
      "table": 2618,
      "Pat": 2619,
      "arr": 2620,
      "demon": 2621,
      "looks": 2622,
      "suit": 2623,
      "2009": 2624,
      "Lon": 2625,
      "Muslim": 2626,
      "olution": 2627,
      "bul": 2628,
      "contract": 2629,
      "training": 2630,
      "natural": 2631,
      "King": 2632,
      "various": 2633,
      "language": 2634,
      "network": 2635,
      "aur": 2636,
      "Pre": 2637,
      "focus": 2638,
      "agement": 2639,
      "veh": 2640,
      "leader": 2641,
      "India": 2642,
      "song": 2643,
      "aming": 2644,
      "attention": 2645,
      "exam": 2646,
      "ceed": 2647,
      "Sup": 2648,
      "labor": 2649,
      "Gener": 2650,
      "brought": 2651,
      "ering": 2652,
      "citiz": 2653,
      "weet": 2654,
      "Iran": 2655,
      "behavi": 2656,
      "coin": 2657,
      "ST": 2658,
      "independ": 2659,
      "Play": 2660,
      "Senate": 2661,
      "stor": 2662,
      "03": 2663,
      "named": 2664,
      "shop": 2665,
      "mach": 2666,
      "Ben": 2667,
      "Times": 2668,
      "upon": 2669,
      "stead": 2670,
      "Mor": 2671,
      "ledge": 2672,
      "ients": 2673,
      "Bro": 2674,
      "sens": 2675,
      "slow": 2676,
      "Street": 2677,
      "path": 2678,
      "ico": 2679,
      "Rom": 2680,
      "secut": 2681,
      "systems": 2682,
      "changed": 2683,
      "giving": 2684,
      "Cent": 2685,
      "Police": 2686,
      "undred": 2687,
      "istan": 2688,
      "Most": 2689,
      "arily": 2690,
      "pread": 2691,
      "rules": 2692,
      "Center": 2693,
      "yond": 2694,
      "parents": 2695,
      "paper": 2696,
      "Read": 2697,
      "fit": 2698,
      "talking": 2699,
      "latest": 2700,
      "72": 2701,
      "73": 2702,
      "][": 2703,
      "parts": 2704,
      "sexual": 2705,
      "communic": 2706,
      "bir": 2707,
      "aves": 2708,
      "moving": 2709,
      "ape": 2710,
      "Sand": 2711,
      "door": 2712,
      "54": 2713,
      "Park": 2714,
      "plat": 2715,
      "brain": 2716,
      "ays": 2717,
      "strugg": 2718,
      "Party": 2719,
      "fix": 2720,
      "63": 2721,
      "Michael": 2722,
      "ordin": 2723,
      "conserv": 2724,
      "achie": 2725,
      "learn": 2726,
      "features": 2727,
      "center": 2728,
      "anch": 2729,
      "Oh": 2730,
      "immig": 2731,
      "craft": 2732,
      "placed": 2733,
      "considered": 2734,
      "Soc": 2735,
      "County": 2736,
      "forms": 2737,
      "Che": 2738,
      "medical": 2739,
      "sn": 2740,
      "hands": 2741,
      "assa": 2742,
      "remember": 2743,
      "quarter": 2744,
      "extreme": 2745,
      "FC": 2746,
      "addition": 2747,
      "sort": 2748,
      "map": 2749,
      "cru": 2750,
      "roy": 2751,
      "Ira": 2752,
      "stitution": 2753,
      "levels": 2754,
      "looked": 2755,
      "depart": 2756,
      "prior": 2757,
      "Sw": 2758,
      "except": 2759,
      "mill": 2760,
      "defense": 2761,
      "bank": 2762,
      "weight": 2763,
      "telligence": 2764,
      "London": 2765,
      "regul": 2766,
      "consist": 2767,
      "investigation": 2768,
      "writing": 2769,
      "wise": 2770,
      "guy": 2771,
      "install": 2772,
      "mur": 2773,
      "file": 2774,
      "calls": 2775,
      "critic": 2776,
      "Saturday": 2777,
      "fo": 2778,
      "FL": 2779,
      "increasing": 2780,
      "modern": 2781,
      "53": 2782,
      "mak": 2783,
      "suffer": 2784,
      "dollar": 2785,
      "jobs": 2786,
      "write": 2787,
      "Iraq": 2788,
      "incident": 2789,
      "erson": 2790,
      "chief": 2791,
      "ell": 2792,
      "journal": 2793,
      "cross": 2794,
      "bol": 2795,
      "completely": 2796,
      "zz": 2797,
      "message": 2798,
      "bel": 2799,
      "poor": 2800,
      "analys": 2801,
      "violence": 2802,
      "smo": 2803,
      "particularly": 2804,
      "James": 2805,
      "Lab": 2806,
      "hosp": 2807,
      "Air": 2808,
      "rit": 2809,
      "enced": 2810,
      "resour": 2811,
      "rict": 2812,
      "pped": 2813,
      "rench": 2814,
      "despite": 2815,
      "speech": 2816,
      "claims": 2817,
      "majority": 2818,
      "spr": 2819,
      "piece": 2820,
      "histor": 2821,
      "Over": 2822,
      "alone": 2823,
      "travel": 2824,
      "Many": 2825,
      "People": 2826,
      "tware": 2827,
      "zon": 2828,
      "198": 2829,
      "attacks": 2830,
      "spokes": 2831,
      "wall": 2832,
      "Since": 2833,
      "Lu": 2834,
      "rap": 2835,
      "carry": 2836,
      "Dan": 2837,
      "usually": 2838,
      "effort": 2839,
      "UN": 2840,
      "obvious": 2841,
      "climate": 2842,
      "hous": 2843,
      "Febr": 2844,
      "interesting": 2845,
      "Val": 2846,
      "kept": 2847,
      "February": 2848,
      "ension": 2849,
      "Willi": 2850,
      "native": 2851,
      "sett": 2852,
      "biggest": 2853,
      "surve": 2854,
      "middle": 2855,
      "although": 2856,
      "pul": 2857,
      "01": 2858,
      "eight": 2859,
      "ille": 2860,
      "pts": 2861,
      "Last": 2862,
      "ampion": 2863,
      "hundred": 2864,
      "mob": 2865,
      "society": 2866,
      "sometimes": 2867,
      "cf": 2868,
      "opportunity": 2869,
      "growing": 2870,
      "52": 2871,
      "soft": 2872,
      "stuff": 2873,
      "practice": 2874,
      "Bre": 2875,
      "note": 2876,
      "born": 2877,
      "xim": 2878,
      "served": 2879,
      "assist": 2880,
      "reedom": 2881,
      "exactly": 2882,
      "described": 2883,
      "ican": 2884,
      "ses": 2885,
      "required": 2886,
      "icles": 2887,
      "danger": 2888,
      "Ber": 2889,
      "entially": 2890,
      "contact": 2891,
      "Republicans": 2892,
      "thinking": 2893,
      "limited": 2894,
      "Ma": 2895,
      "psy": 2896,
      "spot": 2897,
      "cry": 2898,
      "books": 2899,
      "movie": 2900,
      "products": 2901,
      "bd": 2902,
      "League": 2903,
      "figure": 2904,
      "62": 2905,
      "MP": 2906,
      "certainly": 2907,
      "sor": 2908,
      "aries": 2909,
      "wonder": 2910,
      "starting": 2911,
      "item": 2912,
      "century": 2913,
      "stage": 2914,
      "stories": 2915,
      "surv": 2916,
      "culture": 2917,
      "extra": 2918,
      "gency": 2919,
      "deliver": 2920,
      "BI": 2921,
      "continued": 2922,
      "boy": 2923,
      "Texas": 2924,
      "officers": 2925,
      "inese": 2926,
      "lic": 2927,
      "vertisement": 2928,
      "summer": 2929,
      "Bu": 2930,
      "necessary": 2931,
      "ening": 2932,
      "forced": 2933,
      "finally": 2934,
      "Fed": 2935,
      "touch": 2936,
      "Tor": 2937,
      "reading": 2938,
      "Rich": 2939,
      "provided": 2940,
      "Net": 2941,
      "ously": 2942,
      "zer": 2943,
      "Democratic": 2944,
      "thus": 2945,
      "camer": 2946,
      "select": 2947,
      "www": 2948,
      "details": 2949,
      "comments": 2950,
      "vice": 2951,
      "ries": 2952,
      "sat": 2953,
      "bf": 2954,
      "rich": 2955,
      "forts": 2956,
      "Str": 2957,
      "standard": 2958,
      "laws": 2959,
      "Bill": 2960,
      "Chinese": 2961,
      "mic": 2962,
      "crow": 2963,
      "Jack": 2964,
      "option": 2965,
      "education": 2966,
      "region": 2967,
      "gone": 2968,
      "stra": 2969,
      "damage": 2970,
      "showed": 2971,
      "Bel": 2972,
      "tly": 2973,
      "scene": 2974,
      "income": 2975,
      "sle": 2976,
      "ened": 2977,
      "hur": 2978,
      "remains": 2979,
      "utions": 2980,
      "Image": 2981,
      "Mart": 2982,
      "imag": 2983,
      "happy": 2984,
      "perhaps": 2985,
      "costs": 2986,
      "correct": 2987,
      "designed": 2988,
      "challeng": 2989,
      "bes": 2990,
      "neg": 2991,
      "cele": 2992,
      "Day": 2993,
      "IP": 2994,
      "Apple": 2995,
      "ert": 2996,
      "lie": 2997,
      "wife": 2998,
      "bing": 2999,
      "purch": 3000,
      "51": 3001,
      "maintain": 3002,
      "enjoy": 3003,
      "appeared": 3004,
      "000000000000150": 3005,
      "choice": 3006,
      "multiple": 3007,
      "02": 3008,
      "appoint": 3009,
      "71": 3010,
      "core": 3011,
      "CE": 3012,
      "CO": 3013,
      "enge": 3014,
      "join": 3015,
      "cris": 3016,
      "Indian": 3017,
      "complain": 3018,
      "Because": 3019,
      "fan": 3020,
      "Ke": 3021,
      "lap": 3022,
      "....": 3023,
      "Green": 3024,
      "passed": 3025,
      "implement": 3026,
      "sets": 3027,
      "anced": 3028,
      "Like": 3029,
      "pair": 3030,
      "died": 3031,
      "tin": 3032,
      "wouldn": 3033,
      "61": 3034,
      "voters": 3035,
      "za": 3036,
      "High": 3037,
      "increased": 3038,
      "effects": 3039,
      "reality": 3040,
      "ec": 3041,
      "girl": 3042,
      "ification": 3043,
      "meaning": 3044,
      "throw": 3045,
      "kids": 3046,
      "nom": 3047,
      "football": 3048,
      "rank": 3049,
      "strict": 3050,
      "lled": 3051,
      "aa": 3052,
      "sec": 3053,
      "epis": 3054,
      "inde": 3055,
      "gar": 3056,
      "ishing": 3057,
      "beyond": 3058,
      "idge": 3059,
      "ees": 3060,
      "efforts": 3061,
      "ables": 3062,
      "claimed": 3063,
      "guys": 3064,
      "teen": 3065,
      "bum": 3066,
      "directly": 3067,
      "student": 3068,
      "central": 3069,
      "towards": 3070,
      "clean": 3071,
      "Au": 3072,
      "df": 3073,
      "agon": 3074,
      "title": 3075,
      "standing": 3076,
      "includes": 3077,
      "complex": 3078,
      "reli": 3079,
      "00000000000000The": 3080,
      "celebr": 3081,
      "feed": 3082,
      "skill": 3083,
      "couldn": 3084,
      "safety": 3085,
      "Associ": 3086,
      "drive": 3087,
      "Wind": 3088,
      "Ange": 3089,
      "(@": 3090,
      "Def": 3091,
      "Democrats": 3092,
      "plant": 3093,
      "ET": 3094,
      "immediately": 3095,
      "blood": 3096,
      "rates": 3097,
      "ida": 3098,
      "appears": 3099,
      "Although": 3100,
      "opin": 3101,
      "ahead": 3102,
      "charge": 3103,
      "Super": 3104,
      "Sci": 3105,
      "recomm": 3106,
      "Tod": 3107,
      "Cha": 3108,
      "agency": 3109,
      "Tom": 3110,
      "tract": 3111,
      "throughout": 3112,
      "Bur": 3113,
      "league": 3114,
      "b8": 3115,
      "battle": 3116,
      "ode": 3117,
      "additional": 3118,
      "antic": 3119,
      "reng": 3120,
      "consum": 3121,
      "bc": 3122,
      "umb": 3123,
      "Minister": 3124,
      "English": 3125,
      "pressure": 3126,
      "Gover": 3127,
      "mix": 3128,
      "Ham": 3129,
      "EC": 3130,
      "relative": 3131,
      "software": 3132,
      "toward": 3133,
      "religious": 3134,
      "French": 3135,
      "ov": 3136,
      "maybe": 3137,
      "iers": 3138,
      "debate": 3139,
      "suspect": 3140,
      "thousands": 3141,
      "Mac": 3142,
      "beginning": 3143,
      "EU": 3144,
      "ware": 3145,
      "officer": 3146,
      "resh": 3147,
      "organization": 3148,
      "aughter": 3149,
      "stream": 3150,
      "advant": 3151,
      "lease": 3152,
      "flow": 3153,
      "property": 3154,
      "largest": 3155,
      "PS": 3156,
      "sites": 3157,
      "Sim": 3158,
      "George": 3159,
      "receive": 3160,
      "command": 3161,
      "budget": 3162,
      "computer": 3163,
      "dark": 3164,
      "positive": 3165,
      "estim": 3166,
      "distribut": 3167,
      "nature": 3168,
      "gender": 3169,
      "bri": 3170,
      "PM": 3171,
      "mitted": 3172,
      "b9": 3173,
      "copy": 3174,
      "hab": 3175,
      "Reg": 3176,
      "blog": 3177,
      "device": 3178,
      "atever": 3179,
      "analysis": 3180,
      "trust": 3181,
      "ek": 3182,
      "color": 3183,
      "conditions": 3184,
      "mat": 3185,
      "signed": 3186,
      "helped": 3187,
      "uk": 3188,
      "credit": 3189,
      "alleged": 3190,
      "setting": 3191,
      "venue": 3192,
      "nuclear": 3193,
      "normal": 3194,
      "yn": 3195,
      "failed": 3196,
      "adem": 3197,
      "Smith": 3198,
      "General": 3199,
      "ops": 3200,
      "sea": 3201,
      "unique": 3202,
      "Mid": 3203,
      "owners": 3204,
      "Yes": 3205,
      "reasons": 3206,
      "stock": 3207,
      "sched": 3208,
      "iver": 3209,
      "Mex": 3210,
      "iff": 3211,
      "myself": 3212,
      "vention": 3213,
      "?\"": 3214,
      "OT": 3215,
      "encour": 3216,
      "encies": 3217,
      "fear": 3218,
      "berg": 3219,
      "college": 3220,
      "era": 3221,
      "conference": 3222,
      "difference": 3223,
      "hest": 3224,
      "iles": 3225,
      "German": 3226,
      "syn": 3227,
      "powerful": 3228,
      "compared": 3229,
      "mental": 3230,
      "Thom": 3231,
      "insur": 3232,
      "eyes": 3233,
      "hero": 3234,
      "capt": 3235,
      "places": 3236,
      "During": 3237,
      "instit": 3238,
      "Syria": 3239,
      "wing": 3240,
      "prep": 3241,
      "Christian": 3242,
      "PC": 3243,
      "shown": 3244,
      "allows": 3245,
      "chair": 3246,
      "thers": 3247,
      "Other": 3248,
      "frequ": 3249,
      "section": 3250,
      "Trans": 3251,
      "fol": 3252,
      "Sal": 3253,
      "peace": 3254,
      "confir": 3255,
      "characters": 3256,
      "stic": 3257,
      "Jer": 3258,
      "successful": 3259,
      "bab": 3260,
      "spending": 3261,
      "presidential": 3262,
      "stitute": 3263,
      "solute": 3264,
      "aly": 3265,
      "origin": 3266,
      "predict": 3267,
      "Two": 3268,
      "eye": 3269,
      "beat": 3270,
      "Your": 3271,
      "candidate": 3272,
      "cool": 3273,
      "crime": 3274,
      "streng": 3275,
      "ultim": 3276,
      "ston": 3277,
      "ws": 3278,
      "pic": 3279,
      "bound": 3280,
      "avoid": 3281,
      "rock": 3282,
      "physical": 3283,
      "convers": 3284,
      "vari": 3285,
      "names": 3286,
      "International": 3287,
      "Mer": 3288,
      "executive": 3289,
      "developed": 3290,
      "acqu": 3291,
      "poll": 3292,
      "upd": 3293,
      "confl": 3294,
      "lose": 3295,
      "nice": 3296,
      "prem": 3297,
      "drink": 3298,
      "treatment": 3299,
      "Mark": 3300,
      "politics": 3301,
      "Mag": 3302,
      "Advertisement": 3303,
      "earch": 3304,
      "analy": 3305,
      "scr": 3306,
      "ural": 3307,
      "cise": 3308,
      "schools": 3309,
      "ufact": 3310,
      "counts": 3311,
      "Vie": 3312,
      "determin": 3313,
      "Gold": 3314,
      "Earth": 3315,
      "Mal": 3316,
      "fine": 3317,
      "IA": 3318,
      "willing": 3319,
      "meant": 3320,
      "2007": 3321,
      "Australia": 3322,
      "Bay": 3323,
      "emot": 3324,
      "Arab": 3325,
      "criminal": 3326,
      "followed": 3327,
      "000000000000015": 3328,
      "propos": 3329,
      "truth": 3330,
      "rise": 3331,
      "eventually": 3332,
      "gives": 3333,
      "inno": 3334,
      "cture": 3335,
      "operation": 3336,
      "families": 3337,
      "easily": 3338,
      "chain": 3339,
      "astic": 3340,
      "School": 3341,
      "):": 3342,
      "yourself": 3343,
      "itor": 3344,
      "impress": 3345,
      "Germany": 3346,
      "Ano": 3347,
      "overall": 3348,
      "mun": 3349,
      "kick": 3350,
      "station": 3351,
      "Law": 3352,
      "hon": 3353,
      "ux": 3354,
      "anks": 3355,
      "intelligence": 3356,
      "weapons": 3357,
      "Also": 3358,
      "scale": 3359,
      "lands": 3360,
      "mail": 3361,
      "smart": 3362,
      "Alex": 3363,
      "Rev": 3364,
      "fighting": 3365,
      "cities": 3366,
      "rif": 3367,
      "ideas": 3368,
      "omen": 3369,
      "domin": 3370,
      "SA": 3371,
      "Flor": 3372,
      "green": 3373,
      "fee": 3374,
      "liter": 3375,
      "Another": 3376,
      "beaut": 3377,
      "minim": 3378,
      "senior": 3379,
      "walk": 3380,
      "crisis": 3381,
      "Ter": 3382,
      "els": 3383,
      "activity": 3384,
      "status": 3385,
      "Follow": 3386,
      "rule": 3387,
      "ease": 3388,
      "integr": 3389,
      "Union": 3390,
      "cat": 3391,
      "murder": 3392,
      "display": 3393,
      "c8": 3394,
      "fortun": 3395,
      "Scott": 3396,
      "brand": 3397,
      "lection": 3398,
      "Ty": 3399,
      "send": 3400,
      "Cal": 3401,
      "decades": 3402,
      "ta": 3403,
      "projects": 3404,
      "aling": 3405,
      "straight": 3406,
      "save": 3407,
      "aste": 3408,
      "democr": 3409,
      "eth": 3410,
      "sales": 3411,
      "CH": 3412,
      "iced": 3413,
      "ding": 3414,
      "comfort": 3415,
      "noted": 3416,
      "apparen": 3417,
      "Rob": 3418,
      "compe": 3419,
      "funding": 3420,
      "benefits": 3421,
      "sou": 3422,
      "Stud": 3423,
      "calling": 3424,
      "Vir": 3425,
      "Ry": 3426,
      "expand": 3427,
      "concept": 3428,
      "ari": 3429,
      "highly": 3430,
      "Hillary": 3431,
      "riage": 3432,
      "challenge": 3433,
      "continues": 3434,
      "manager": 3435,
      "ission": 3436,
      "session": 3437,
      "goals": 3438,
      "commer": 3439,
      "previously": 3440,
      "See": 3441,
      "Internet": 3442,
      "ivity": 3443,
      "wait": 3444,
      "psych": 3445,
      "doub": 3446,
      "individuals": 3447,
      "itely": 3448,
      "bomb": 3449,
      "pun": 3450,
      "La": 3451,
      "minor": 3452,
      "Council": 3453,
      "clearly": 3454,
      "primary": 3455,
      "measure": 3456,
      "org": 3457,
      "mas": 3458,
      "spread": 3459,
      "scen": 3460,
      "adding": 3461,
      "aware": 3462,
      "customers": 3463,
      "Sha": 3464,
      "serve": 3465,
      "church": 3466,
      "knowledge": 3467,
      "larger": 3468,
      "ado": 3469,
      "seeing": 3470,
      "c9": 3471,
      "birth": 3472,
      "Any": 3473,
      "grand": 3474,
      "winning": 3475,
      "moun": 3476,
      "asy": 3477,
      "Press": 3478,
      "ateg": 3479,
      "Are": 3480,
      "300": 3481,
      "resources": 3482,
      "voice": 3483,
      "feet": 3484,
      "ube": 3485,
      "phen": 3486,
      "ville": 3487,
      "Sam": 3488,
      "seemed": 3489,
      "greater": 3490,
      "shooting": 3491,
      "tural": 3492,
      "Once": 3493,
      "pi": 3494,
      "Sub": 3495,
      "Who": 3496,
      "turning": 3497,
      "favorite": 3498,
      "closed": 3499,
      "reached": 3500,
      "programs": 3501,
      "Big": 3502,
      "enem": 3503,
      "agreement": 3504,
      "location": 3505,
      "options": 3506,
      "Chic": 3507,
      "traditional": 3508,
      "manufact": 3509,
      "gree": 3510,
      "studies": 3511,
      "drop": 3512,
      "England": 3513,
      "border": 3514,
      "stick": 3515,
      "female": 3516,
      "absolute": 3517,
      "rare": 3518,
      "isions": 3519,
      "Bit": 3520,
      "Gl": 3521,
      "IL": 3522,
      "dre": 3523,
      "establish": 3524,
      "caused": 3525,
      "virt": 3526,
      "PR": 3527,
      "revol": 3528,
      "knows": 3529,
      "etro": 3530,
      "sources": 3531,
      "stood": 3532,
      "quot": 3533,
      "reflect": 3534,
      "demonstr": 3535,
      "critical": 3536,
      "catch": 3537,
      "a8": 3538,
      "cum": 3539,
      "gold": 3540,
      "goti": 3541,
      "spend": 3542,
      "Mil": 3543,
      "creating": 3544,
      "CN": 3545,
      "Micro": 3546,
      "frame": 3547,
      "Florida": 3548,
      "organiz": 3549,
      "Health": 3550,
      "Art": 3551,
      "autom": 3552,
      "shut": 3553,
      "Ken": 3554,
      "iving": 3555,
      "bs": 3556,
      "Cur": 3557,
      "BA": 3558,
      "Chicago": 3559,
      "produced": 3560,
      "Mike": 3561,
      "charges": 3562,
      "sey": 3563,
      "dog": 3564,
      "enty": 3565,
      "basic": 3566,
      "freedom": 3567,
      "d8": 3568,
      "witch": 3569,
      "raised": 3570,
      "asking": 3571,
      "fat": 3572,
      "trou": 3573,
      "ING": 3574,
      "EL": 3575,
      "mostly": 3576,
      "ength": 3577,
      "GB": 3578,
      "a9": 3579,
      "Ve": 3580,
      "fal": 3581,
      "France": 3582,
      "hospital": 3583,
      "edge": 3584,
      "album": 3585,
      "Lou": 3586,
      "prices": 3587,
      "employees": 3588,
      "wealth": 3589,
      "supposed": 3590,
      "types": 3591,
      "produce": 3592,
      "pool": 3593,
      "sun": 3594,
      "Under": 3595,
      "PA": 3596,
      "ram": 3597,
      "happens": 3598,
      "Those": 3599,
      "researchers": 3600,
      "stain": 3601,
      "actual": 3602,
      "orders": 3603,
      "Instead": 3604,
      "posted": 3605,
      "negoti": 3606,
      "asc": 3607,
      "haven": 3608,
      "policies": 3609,
      "fuel": 3610,
      "apped": 3611,
      "effic": 3612,
      "patients": 3613,
      "cars": 3614,
      "Game": 3615,
      "concerns": 3616,
      "values": 3617,
      "ensure": 3618,
      "rant": 3619,
      "usion": 3620,
      "mechan": 3621,
      "clud": 3622,
      "uana": 3623,
      "street": 3624,
      "responsible": 3625,
      "arms": 3626,
      "minister": 3627,
      "Palest": 3628,
      "behavior": 3629,
      "leaving": 3630,
      "weak": 3631,
      "tect": 3632,
      "iled": 3633,
      "Del": 3634,
      "neighbor": 3635,
      "ato": 3636,
      "Wall": 3637,
      "etc": 3638,
      "authorities": 3639,
      "iction": 3640,
      "2f": 3641,
      "temper": 3642,
      "nine": 3643,
      "enforce": 3644,
      "Today": 3645,
      "Tech": 3646,
      "eli": 3647,
      "eff": 3648,
      "Add": 3649,
      "platform": 3650,
      "Out": 3651,
      "appropri": 3652,
      "Bush": 3653,
      "application": 3654,
      "dire": 3655,
      "images": 3656,
      "ota": 3657,
      "gent": 3658,
      "ML": 3659,
      "Franc": 3660,
      "Secret": 3661,
      "assu": 3662,
      "offered": 3663,
      "roid": 3664,
      "whatever": 3665,
      "agreed": 3666,
      "massive": 3667,
      "resist": 3668,
      "tend": 3669,
      "picture": 3670,
      "Mad": 3671,
      "mobile": 3672,
      "NA": 3673,
      "1f": 3674,
      "Commit": 3675,
      "citizens": 3676,
      "Pri": 3677,
      "sad": 3678,
      "erve": 3679,
      "d9": 3680,
      "ighest": 3681,
      "iful": 3682,
      "3f": 3683,
      "oppon": 3684,
      "ijuana": 3685,
      "2006": 3686,
      "prosecut": 3687,
      "lling": 3688,
      "THE": 3689,
      "weekend": 3690,
      "lets": 3691,
      "confirmed": 3692,
      "MO": 3693,
      "revealed": 3694,
      ".'": 3695,
      "Western": 3696,
      "Johnson": 3697,
      "believed": 3698,
      "iar": 3699,
      "curren": 3700,
      "rants": 3701,
      "advis": 3702,
      "blue": 3703,
      "rating": 3704,
      "heavy": 3705,
      "ga": 3706,
      "choose": 3707,
      "feeling": 3708,
      "judge": 3709,
      "limit": 3710,
      "Mill": 3711,
      "solution": 3712,
      "effective": 3713,
      "strategy": 3714,
      "Hum": 3715,
      "Liber": 3716,
      "records": 3717,
      "brief": 3718,
      "opening": 3719,
      "advantage": 3720,
      "Chris": 3721,
      "learned": 3722,
      "iel": 3723,
      "aud": 3724,
      "BS": 3725,
      "thes": 3726,
      "east": 3727,
      "parties": 3728,
      "Justice": 3729,
      "7f": 3730,
      "mir": 3731,
      "lawy": 3732,
      "condition": 3733,
      "daily": 3734,
      "runs": 3735,
      "Sto": 3736,
      "orial": 3737,
      "independent": 3738,
      "coal": 3739,
      "benefit": 3740,
      "arian": 3741,
      "vs": 3742,
      "opened": 3743,
      "Fox": 3744,
      "interested": 3745,
      "slight": 3746,
      "mod": 3747,
      "whom": 3748,
      "highest": 3749,
      "arrested": 3750,
      "https": 3751,
      "bod": 3752,
      "patter": 3753,
      "infr": 3754,
      "Windows": 3755,
      "devices": 3756,
      "Los": 3757,
      "influence": 3758,
      "san": 3759,
      "gers": 3760,
      "profit": 3761,
      "Francis": 3762,
      "replace": 3763,
      "trial": 3764,
      "Office": 3765,
      "telling": 3766,
      "opposition": 3767,
      "supported": 3768,
      "learning": 3769,
      "offers": 3770,
      "Security": 3771,
      "showing": 3772,
      "vill": 3773,
      "tempor": 3774,
      "6f": 3775,
      "vin": 3776,
      "Sanders": 3777,
      "Please": 3778,
      "digital": 3779,
      "provides": 3780,
      "mig": 3781,
      "Direct": 3782,
      "AA": 3783,
      "operations": 3784,
      "b5": 3785,
      "generation": 3786,
      "residents": 3787,
      "Research": 3788,
      "defend": 3789,
      "understanding": 3790,
      "MS": 3791,
      "fant": 3792,
      "existing": 3793,
      "management": 3794,
      "2e": 3795,
      "3e": 3796,
      "electric": 3797,
      "liament": 3798,
      "Uk": 3799,
      "amaz": 3800,
      "Dist": 3801,
      "NFL": 3802,
      "definitely": 3803,
      "ancy": 3804,
      "Commission": 3805,
      "belief": 3806,
      "prefer": 3807,
      "Korea": 3808,
      "pitch": 3809,
      "Both": 3810,
      "TO": 3811,
      "camera": 3812,
      "ami": 3813,
      "click": 3814,
      "accur": 3815,
      "marriage": 3816,
      "Committee": 3817,
      "err": 3818,
      "advoc": 3819,
      "justice": 3820,
      "Islamic": 3821,
      "Port": 3822,
      "debt": 3823,
      "explained": 3824,
      "memory": 3825,
      "inner": 3826,
      "Brown": 3827,
      "Cup": 3828,
      "tack": 3829,
      "1e": 3830,
      "investment": 3831,
      "charged": 3832,
      "views": 3833,
      "server": 3834,
      "equip": 3835,
      "construction": 3836,
      "LE": 3837,
      "4f": 3838,
      "jump": 3839,
      "dollars": 3840,
      "double": 3841,
      "sch": 3842,
      "shock": 3843,
      "Will": 3844,
      "atures": 3845,
      "oo": 3846,
      "Time": 3847,
      "DA": 3848,
      "MA": 3849,
      "rian": 3850,
      "makers": 3851,
      "guard": 3852,
      "bled": 3853,
      "gather": 3854,
      "dem": 3855,
      "Prof": 3856,
      "yes": 3857,
      "Govern": 3858,
      "driving": 3859,
      "ingly": 3860,
      "Lin": 3861,
      "Found": 3862,
      "associated": 3863,
      "ito": 3864,
      "itter": 3865,
      "worse": 3866,
      "affic": 3867,
      "formation": 3868,
      "politic": 3869,
      "sole": 3870,
      "professional": 3871,
      "notes": 3872,
      "illegal": 3873,
      "bour": 3874,
      "generally": 3875,
      "initial": 3876,
      "gay": 3877,
      "ule": 3878,
      "millions": 3879,
      "Despite": 3880,
      "theory": 3881,
      "Back": 3882,
      "b0": 3883,
      "plus": 3884,
      "occas": 3885,
      "Rel": 3886,
      "odes": 3887,
      "Tri": 3888,
      "false": 3889,
      "stone": 3890,
      "pm": 3891,
      "opinion": 3892,
      "fare": 3893,
      "ored": 3894,
      "purpose": 3895,
      "committee": 3896,
      "Sil": 3897,
      "Ver": 3898,
      "Mur": 3899,
      "television": 3900,
      "Que": 3901,
      "Canadian": 3902,
      "spl": 3903,
      "lor": 3904,
      "destroy": 3905,
      "tough": 3906,
      "Robert": 3907,
      "species": 3908,
      "proposed": 3909,
      "mentioned": 3910,
      "basis": 3911,
      "sche": 3912,
      "floor": 3913,
      "ads": 3914,
      "kid": 3915,
      "extremely": 3916,
      "miles": 3917,
      "faith": 3918,
      "Their": 3919,
      "length": 3920,
      "solid": 3921,
      "negative": 3922,
      "figh": 3923,
      "partners": 3924,
      "hundreds": 3925,
      "machine": 3926,
      "2000": 3927,
      "conservative": 3928,
      "7e": 3929,
      "Jud": 3930,
      "Leg": 3931,
      "controvers": 3932,
      "achieve": 3933,
      "bow": 3934,
      "rob": 3935,
      "UT": 3936,
      "bottom": 3937,
      "amed": 3938,
      "usual": 3939,
      "________": 3940,
      "SS": 3941,
      "valid": 3942,
      "stated": 3943,
      "lif": 3944,
      "uries": 3945,
      "flag": 3946,
      "announce": 3947,
      "hack": 3948,
      "Jim": 3949,
      "minute": 3950,
      "shared": 3951,
      "Jones": 3952,
      "constant": 3953,
      "PD": 3954,
      "Sur": 3955,
      "Israeli": 3956,
      "unk": 3957,
      "obtain": 3958,
      "becoming": 3959,
      "surround": 3960,
      "becomes": 3961,
      "ume": 3962,
      "holding": 3963,
      "hair": 3964,
      "##": 3965,
      "IR": 3966,
      "accom": 3967,
      "6e": 3968,
      "wild": 3969,
      "easier": 3970,
      "afford": 3971,
      "restrict": 3972,
      "scientists": 3973,
      "Good": 3974,
      "aked": 3975,
      "exer": 3976,
      "DC": 3977,
      "Miss": 3978,
      "ni": 3979,
      "inch": 3980,
      "Atl": 3981,
      "accused": 3982,
      "gi": 3983,
      "episode": 3984,
      "marijuana": 3985,
      "yal": 3986,
      "phil": 3987,
      "Bank": 3988,
      "4e": 3989,
      "legislation": 3990,
      "Er": 3991,
      "structure": 3992,
      "ault": 3993,
      "complet": 3994,
      "putting": 3995,
      "Bal": 3996,
      "trig": 3997,
      "watching": 3998,
      "abilities": 3999,
      "Church": 4000,
      "cash": 4001,
      "3d": 4002,
      "ka": 4003,
      "Microsoft": 4004,
      "sleep": 4005,
      "reduce": 4006,
      "cards": 4007,
      "imin": 4008,
      "occup": 4009,
      "fresh": 4010,
      "rum": 4011,
      "atically": 4012,
      "airs": 4013,
      "ara": 4014,
      "victims": 4015,
      "====": 4016,
      "identified": 4017,
      "Web": 4018,
      "notice": 4019,
      "issued": 4020,
      "Britain": 4021,
      "IV": 4022,
      "instance": 4023,
      "2005": 4024,
      "sid": 4025,
      "Carol": 4026,
      "doubt": 4027,
      "documents": 4028,
      "2d": 4029,
      "internet": 4030,
      "plays": 4031,
      "attor": 4032,
      "ining": 4033,
      "witness": 4034,
      "daughter": 4035,
      "direction": 4036,
      "testing": 4037,
      "ered": 4038,
      "master": 4039,
      "hun": 4040,
      "dangerous": 4041,
      "raz": 4042,
      "sto": 4043,
      "hus": 4044,
      "older": 4045,
      "Institute": 4046,
      "Yet": 4047,
      "stress": 4048,
      "victory": 4049,
      "UR": 4050,
      "tren": 4051,
      "apt": 4052,
      "radio": 4053,
      "FBI": 4054,
      "argument": 4055,
      "cro": 4056,
      "Gar": 4057,
      "audience": 4058,
      "ality": 4059,
      "nic": 4060,
      "consu": 4061,
      "leadership": 4062,
      "returned": 4063,
      "vation": 4064,
      "LA": 4065,
      "Fore": 4066,
      "background": 4067,
      "driver": 4068,
      "owner": 4069,
      "separate": 4070,
      "categ": 4071,
      "ghan": 4072,
      "discovered": 4073,
      "communities": 4074,
      "famous": 4075,
      "Ros": 4076,
      "hearing": 4077,
      "worst": 4078,
      "unit": 4079,
      "vehicle": 4080,
      "400": 4081,
      "Ukrain": 4082,
      "Pak": 4083,
      "Sou": 4084,
      "hone": 4085,
      "commercial": 4086,
      "launched": 4087,
      "dome": 4088,
      "keeping": 4089,
      "north": 4090,
      "Tre": 4091,
      "2018": 4092,
      "champion": 4093,
      "Jewish": 4094,
      "decade": 4095,
      "ya": 4096,
      "micro": 4097,
      "incredi": 4098,
      "zen": 4099,
      "Open": 4100,
      "missed": 4101,
      "coverage": 4102,
      "department": 4103,
      "Ama": 4104,
      "lished": 4105,
      "86": 4106,
      "oppos": 4107,
      "1d": 4108,
      "icated": 4109,
      "pow": 4110,
      "transfer": 4111,
      "bling": 4112,
      "none": 4113,
      "tools": 4114,
      "earth": 4115,
      "iven": 4116,
      "Team": 4117,
      "Jeff": 4118,
      "Ms": 4119,
      "plane": 4120,
      "c5": 4121,
      "ounds": 4122,
      "tests": 4123,
      "repeated": 4124,
      "istics": 4125,
      "writer": 4126,
      "surface": 4127,
      "traffic": 4128,
      "mes": 4129,
      "acity": 4130,
      "Mat": 4131,
      "initi": 4132,
      "competition": 4133,
      "iring": 4134,
      "Ryan": 4135,
      "graphy": 4136,
      "please": 4137,
      "draft": 4138,
      "degree": 4139,
      "han": 4140,
      "hate": 4141,
      "supporters": 4142,
      "items": 4143,
      "Gree": 4144,
      "allowing": 4145,
      "voted": 4146,
      "drugs": 4147,
      "focused": 4148,
      "cks": 4149,
      "sym": 4150,
      "suggested": 4151,
      "missing": 4152,
      "finding": 4153,
      "USA": 4154,
      "rated": 4155,
      "!!": 4156,
      "Fire": 4157,
      "compar": 4158,
      "Ap": 4159,
      "concerned": 4160,
      "Richard": 4161,
      "mous": 4162,
      "farm": 4163,
      "steps": 4164,
      "ships": 4165,
      "established": 4166,
      "located": 4167,
      "ava": 4168,
      "spoke": 4169,
      "raise": 4170,
      "bid": 4171,
      "rep": 4172,
      "sports": 4173,
      "rupt": 4174,
      "andom": 4175,
      "tact": 4176,
      "anta": 4177,
      "Great": 4178,
      "Free": 4179,
      "disease": 4180,
      "lad": 4181,
      "restaur": 4182,
      "tip": 4183,
      "tun": 4184,
      "strength": 4185,
      "Palestin": 4186,
      "partner": 4187,
      "Book": 4188,
      "itude": 4189,
      "HT": 4190,
      "utin": 4191,
      "cript": 4192,
      "()": 4193,
      "bac": 4194,
      "compon": 4195,
      "smaller": 4196,
      "icy": 4197,
      "aker": 4198,
      "ght": 4199,
      "insurance": 4200,
      "strateg": 4201,
      "transport": 4202,
      "entirely": 4203,
      "lege": 4204,
      "experiment": 4205,
      "ano": 4206,
      "conflict": 4207,
      "inct": 4208,
      "cook": 4209,
      "consequ": 4210,
      "000000000000147": 4211,
      "osop": 4212,
      "crowd": 4213,
      "assault": 4214,
      "GOP": 4215,
      "infl": 4216,
      "grade": 4217,
      "bag": 4218,
      "changing": 4219,
      "annual": 4220,
      "animals": 4221,
      "c0": 4222,
      "Japanese": 4223,
      "ester": 4224,
      "familiar": 4225,
      "aspect": 4226,
      "Afghan": 4227,
      "crash": 4228,
      "ults": 4229,
      "requires": 4230,
      "Home": 4231,
      "finished": 4232,
      "itation": 4233,
      "Mod": 4234,
      "ctors": 4235,
      "corporate": 4236,
      "download": 4237,
      "Ir": 4238,
      "union": 4239,
      "joined": 4240,
      "African": 4241,
      "files": 4242,
      "largely": 4243,
      "caught": 4244,
      "aran": 4245,
      "update": 4246,
      "talent": 4247,
      "strike": 4248,
      "husband": 4249,
      "zone": 4250,
      "reform": 4251,
      "grant": 4252,
      "candidates": 4253,
      "hib": 4254,
      "activities": 4255,
      "Jon": 4256,
      "Pakistan": 4257,
      "guess": 4258,
      "eat": 4259,
      "lip": 4260,
      "businesses": 4261,
      "izes": 4262,
      "7d": 4263,
      "subscri": 4264,
      "speaking": 4265,
      "truly": 4266,
      "Bern": 4267,
      "6d": 4268,
      "Martin": 4269,
      "Comp": 4270,
      "enforcement": 4271,
      "Frank": 4272,
      "brary": 4273,
      "assess": 4274,
      "believes": 4275,
      "Louis": 4276,
      "icon": 4277,
      "Africa": 4278,
      "concern": 4279,
      "strain": 4280,
      "RO": 4281,
      "planning": 4282,
      "Sol": 4283,
      "register": 4284,
      "park": 4285,
      "sustain": 4286,
      "refuge": 4287,
      "abuse": 4288,
      "Mexico": 4289,
      "outs": 4290,
      "marks": 4291,
      "fi": 4292,
      "shall": 4293,
      "lights": 4294,
      "decisions": 4295,
      "nar": 4296,
      "aj": 4297,
      "selling": 4298,
      "rig": 4299,
      "waiting": 4300,
      "Thomas": 4301,
      "presence": 4302,
      "gins": 4303,
      "Jose": 4304,
      "olf": 4305,
      "offensive": 4306,
      "Association": 4307,
      "CEO": 4308,
      "].": 4309,
      "lon": 4310,
      "trail": 4311,
      "rout": 4312,
      "introduced": 4313,
      "south": 4314,
      "Android": 4315,
      "girls": 4316,
      "cket": 4317,
      "Virgin": 4318,
      "Peter": 4319,
      "wear": 4320,
      "tells": 4321,
      "fourth": 4322,
      "cells": 4323,
      "andon": 4324,
      "balance": 4325,
      "banks": 4326,
      "eg": 4327,
      "managed": 4328,
      "150": 4329,
      "mut": 4330,
      "Government": 4331,
      "score": 4332,
      "beautiful": 4333,
      "brow": 4334,
      "Public": 4335,
      "porter": 4336,
      "cancer": 4337,
      "holds": 4338,
      "injury": 4339,
      "funds": 4340,
      "housing": 4341,
      "bass": 4342,
      "Watch": 4343,
      "Cle": 4344,
      "a5": 4345,
      "employment": 4346,
      "4d": 4347,
      "fish": 4348,
      "mm": 4349,
      "measures": 4350,
      "Gen": 4351,
      "aggress": 4352,
      "Mary": 4353,
      "sides": 4354,
      "iling": 4355,
      "auto": 4356,
      "Den": 4357,
      "exclus": 4358,
      "recommend": 4359,
      "a0": 4360,
      "spirit": 4361,
      "IM": 4362,
      "spokesman": 4363,
      "faces": 4364,
      "hasn": 4365,
      "homes": 4366,
      "models": 4367,
      "removed": 4368,
      "loved": 4369,
      "reject": 4370,
      "aps": 4371,
      "providing": 4372,
      "appre": 4373,
      "Angeles": 4374,
      "fle": 4375,
      "mical": 4376,
      "interests": 4377,
      "ounder": 4378,
      "discussion": 4379,
      "connection": 4380,
      "portion": 4381,
      "context": 4382,
      "useful": 4383,
      "stopped": 4384,
      "Group": 4385,
      "lived": 4386,
      "oring": 4387,
      "inger": 4388,
      "conversation": 4389,
      "techni": 4390,
      "collection": 4391,
      "rou": 4392,
      "committed": 4393,
      "novel": 4394,
      "Ko": 4395,
      "rial": 4396,
      "Prime": 4397,
      "mere": 4398,
      "flight": 4399,
      "Service": 4400,
      "identity": 4401,
      "cuts": 4402,
      "commission": 4403,
      "dat": 4404,
      "Media": 4405,
      "veter": 4406,
      "presents": 4407,
      "newsp": 4408,
      "azine": 4409,
      "NC": 4410,
      "Pan": 4411,
      "button": 4412,
      "scientific": 4413,
      "corner": 4414,
      "****": 4415,
      "formed": 4416,
      "killing": 4417,
      "mad": 4418,
      "96": 4419,
      "protection": 4420,
      "acknow": 4421,
      "batter": 4422,
      "exchange": 4423,
      "heat": 4424,
      "laugh": 4425,
      "figures": 4426,
      "Ok": 4427,
      "vul": 4428,
      "Hel": 4429,
      "Supreme": 4430,
      "Gal": 4431,
      "brother": 4432,
      "healthy": 4433,
      "igned": 4434,
      "bin": 4435,
      "Army": 4436,
      "Down": 4437,
      "rot": 4438,
      "planned": 4439,
      "Joe": 4440,
      "Bef": 4441,
      "2004": 4442,
      "liance": 4443,
      "mine": 4444,
      "feels": 4445,
      "revolution": 4446,
      "irt": 4447,
      "trip": 4448,
      "thanks": 4449,
      "window": 4450,
      "supply": 4451,
      "otherwise": 4452,
      "College": 4453,
      "skin": 4454,
      "vant": 4455,
      "relatively": 4456,
      "Ari": 4457,
      "bell": 4458,
      "igan": 4459,
      "arrived": 4460,
      "tweet": 4461,
      "planet": 4462,
      "sky": 4463,
      "promise": 4464,
      "Before": 4465,
      "expensive": 4466,
      "therefore": 4467,
      "operating": 4468,
      "isation": 4469,
      "Images": 4470,
      "ronic": 4471,
      "circum": 4472,
      "prove": 4473,
      "optim": 4474,
      "igno": 4475,
      "slightly": 4476,
      "cb": 4477,
      "prop": 4478,
      "paying": 4479,
      "Jes": 4480,
      "survey": 4481,
      "suff": 4482,
      "possibly": 4483,
      "markets": 4484,
      "appropriate": 4485,
      "immigration": 4486,
      "Bow": 4487,
      "hang": 4488,
      "Year": 4489,
      "Phone": 4490,
      "84": 4491,
      "fortunately": 4492,
      "accident": 4493,
      "dden": 4494,
      "Bob": 4495,
      "task": 4496,
      "nut": 4497,
      "Secretary": 4498,
      "skills": 4499,
      "Top": 4500,
      "sho": 4501,
      "losing": 4502,
      "Where": 4503,
      "seek": 4504,
      "Power": 4505,
      "Plan": 4506,
      "atest": 4507,
      "Look": 4508,
      "defensive": 4509,
      "ander": 4510,
      "enses": 4511,
      "Blue": 4512,
      "McC": 4513,
      "Show": 4514,
      "scious": 4515,
      "icial": 4516,
      "armed": 4517,
      "domestic": 4518,
      "lyn": 4519,
      "fellow": 4520,
      "detect": 4521,
      "Bitcoin": 4522,
      ">>": 4523,
      "Mem": 4524,
      "Mean": 4525,
      "Social": 4526,
      "elements": 4527,
      "adjust": 4528,
      "bles": 4529,
      "starts": 4530,
      "fly": 4531,
      "ifying": 4532,
      "medic": 4533,
      "ios": 4534,
      "eah": 4535,
      "uty": 4536,
      "failure": 4537,
      "Amazon": 4538,
      "Syrian": 4539,
      "beer": 4540,
      "AF": 4541,
      "Ru": 4542,
      "bigger": 4543,
      "award": 4544,
      "Color": 4545,
      "suggests": 4546,
      "finish": 4547,
      "sight": 4548,
      "constitution": 4549,
      "susp": 4550,
      "acting": 4551,
      "ada": 4552,
      "patch": 4553,
      "amazing": 4554,
      "construct": 4555,
      "taxes": 4556,
      "Hall": 4557,
      "votes": 4558,
      "intended": 4559,
      "seconds": 4560,
      "boys": 4561,
      "Chief": 4562,
      "script": 4563,
      "yards": 4564,
      "fired": 4565,
      "luck": 4566,
      "\":": 4567,
      "pil": 4568,
      "iation": 4569,
      "remind": 4570,
      "erous": 4571,
      "noon": 4572,
      "va": 4573,
      "photos": 4574,
      "Far": 4575,
      "switch": 4576,
      "insp": 4577,
      "97": 4578,
      "aks": 4579,
      "Sa": 4580,
      "organizations": 4581,
      "SE": 4582,
      "iders": 4583,
      "CP": 4584,
      "sudden": 4585,
      "conce": 4586,
      "Toronto": 4587,
      "phones": 4588,
      "asks": 4589,
      "turns": 4590,
      "87": 4591,
      "army": 4592,
      "breaking": 4593,
      "Only": 4594,
      "carried": 4595,
      "icide": 4596,
      "absolutely": 4597,
      "athe": 4598,
      "fif": 4599,
      "Men": 4600,
      "environmental": 4601,
      "happening": 4602,
      "rush": 4603,
      "error": 4604,
      "philosop": 4605,
      "glass": 4606,
      "alternative": 4607,
      "broken": 4608,
      "Fig": 4609,
      "Second": 4610,
      "uce": 4611,
      "adium": 4612,
      "helping": 4613,
      "OL": 4614,
      "Central": 4615,
      "talks": 4616,
      "consul": 4617,
      "filled": 4618,
      "Each": 4619,
      "decide": 4620,
      "Steve": 4621,
      "unless": 4622,
      "94": 4623,
      "convict": 4624,
      "connected": 4625,
      "Camp": 4626,
      "Though": 4627,
      "Getty": 4628,
      "uate": 4629,
      "filed": 4630,
      "Bet": 4631,
      "harm": 4632,
      "Bost": 4633,
      "secure": 4634,
      "impossible": 4635,
      "Di": 4636,
      "Journal": 4637,
      "Pac": 4638,
      "Maybe": 4639,
      "pping": 4640,
      "astru": 4641,
      "univers": 4642,
      "conscious": 4643,
      "appearance": 4644,
      "lots": 4645,
      "rat": 4646,
      "tag": 4647,
      "Glo": 4648,
      "Sour": 4649,
      "seeking": 4650,
      "Life": 4651,
      "apply": 4652,
      "academ": 4653,
      "spring": 4654,
      "standards": 4655,
      "agues": 4656,
      "broadcast": 4657,
      "humans": 4658,
      "reets": 4659,
      "aces": 4660,
      "HL": 4661,
      "accounts": 4662,
      "variety": 4663,
      "reser": 4664,
      "Brad": 4665,
      "professor": 4666,
      "dropped": 4667,
      "gypt": 4668,
      "Mass": 4669,
      "religion": 4670,
      "princ": 4671,
      "=\"": 4672,
      "gue": 4673,
      "Federal": 4674,
      "territ": 4675,
      "Lee": 4676,
      "Fur": 4677,
      "graphic": 4678,
      "Rad": 4679,
      "apparently": 4680,
      "owned": 4681,
      "gotten": 4682,
      "lan": 4683,
      "swe": 4684,
      "capacity": 4685,
      "district": 4686,
      "positions": 4687,
      "uters": 4688,
      "possibility": 4689,
      "vast": 4690,
      "neighborhood": 4691,
      "Sing": 4692,
      "schedul": 4693,
      "Foundation": 4694,
      "Ze": 4695,
      "facing": 4696,
      "faced": 4697,
      "string": 4698,
      "symp": 4699,
      "Force": 4700,
      "py": 4701,
      "fundament": 4702,
      "IG": 4703,
      "83": 4704,
      "creation": 4705,
      "Boston": 4706,
      "NAS": 4707,
      "Mel": 4708,
      "carbon": 4709,
      "regarding": 4710,
      "clim": 4711,
      "worry": 4712,
      "helps": 4713,
      "twice": 4714,
      "tight": 4715,
      "93": 4716,
      "awa": 4717,
      "shots": 4718,
      "increasingly": 4719,
      "1990": 4720,
      "voc": 4721,
      "currency": 4722,
      "units": 4723,
      "Sign": 4724,
      "prospect": 4725,
      "Still": 4726,
      "ibility": 4727,
      "prime": 4728,
      "Hor": 4729,
      "ki": 4730,
      "developers": 4731,
      "kin": 4732,
      "Space": 4733,
      "valu": 4734,
      "apping": 4735,
      "Egypt": 4736,
      "tel": 4737,
      "Hist": 4738,
      "elected": 4739,
      "warning": 4740,
      "experts": 4741,
      "surprising": 4742,
      "comed": 4743,
      "ares": 4744,
      "Matt": 4745,
      "animal": 4746,
      "internal": 4747,
      "comfortable": 4748,
      "apers": 4749,
      "rom": 4750,
      "soldiers": 4751,
      "deploy": 4752,
      "imagine": 4753,
      "Cru": 4754,
      "multi": 4755,
      "sector": 4756,
      "ultimately": 4757,
      "sounds": 4758,
      "sport": 4759,
      "!\"": 4760,
      "CNN": 4761,
      "itz": 4762,
      "prepared": 4763,
      "ko": 4764,
      "mov": 4765,
      "Guard": 4766,
      "developing": 4767,
      "Carolina": 4768,
      "kins": 4769,
      "closer": 4770,
      "ception": 4771,
      "solar": 4772,
      "Right": 4773,
      "stars": 4774,
      "astructure": 4775,
      "agencies": 4776,
      "Rock": 4777,
      "Middle": 4778,
      "txt0000644000000000000000000001": 4779,
      "honest": 4780,
      "evil": 4781,
      "jail": 4782,
      "phy": 4783,
      "Cy": 4784,
      "cycle": 4785,
      "pieces": 4786,
      "Mich": 4787,
      "capable": 4788,
      "authority": 4789,
      "gment": 4790,
      "seat": 4791,
      "sitting": 4792,
      "shar": 4793,
      "bringing": 4794,
      "alle": 4795,
      "District": 4796,
      "ups": 4797,
      "ansion": 4798,
      "Williams": 4799,
      "pes": 4800,
      "cred": 4801,
      "tch": 4802,
      "Cath": 4803,
      "hase": 4804,
      "poses": 4805,
      "Ev": 4806,
      "plate": 4807,
      "cultural": 4808,
      "icks": 4809,
      "Ron": 4810,
      "satis": 4811,
      "responsibility": 4812,
      "affected": 4813,
      "About": 4814,
      "penal": 4815,
      "passing": 4816,
      "maxim": 4817,
      "abs": 4818,
      "mouth": 4819,
      "olic": 4820,
      "applications": 4821,
      "elections": 4822,
      "random": 4823,
      "Mont": 4824,
      "FA": 4825,
      "Note": 4826,
      "bridge": 4827,
      "00000000000000A": 4828,
      "jour": 4829,
      "aters": 4830,
      "Francisco": 4831,
      "</": 4832,
      "Dou": 4833,
      "keting": 4834,
      "2003": 4835,
      "evin": 4836,
      "university": 4837,
      "estimated": 4838,
      "pled": 4839,
      "Conserv": 4840,
      "EM": 4841,
      "cold": 4842,
      "abort": 4843,
      "Ref": 4844,
      "icul": 4845,
      "Paris": 4846,
      "dress": 4847,
      "determined": 4848,
      "cohol": 4849,
      "Hu": 4850,
      "umn": 4851,
      "82": 4852,
      "weather": 4853,
      "chemical": 4854,
      "illa": 4855,
      "equal": 4856,
      "proto": 4857,
      "presented": 4858,
      "surprise": 4859,
      "ray": 4860,
      "Medic": 4861,
      "zy": 4862,
      "attend": 4863,
      "Sum": 4864,
      "Kel": 4865,
      "txt00006440000000000000000000010": 4866,
      "Virginia": 4867,
      "termine": 4868,
      "crack": 4869,
      "Australian": 4870,
      "eval": 4871,
      "dram": 4872,
      "rail": 4873,
      "Lat": 4874,
      "batt": 4875,
      "Hy": 4876,
      "Andrew": 4877,
      "perspect": 4878,
      "Project": 4879,
      "conclus": 4880,
      "inn": 4881,
      "boost": 4882,
      "auth": 4883,
      "ENT": 4884,
      "agent": 4885,
      "specifically": 4886,
      "asp": 4887,
      "stances": 4888,
      "2001": 4889,
      "],": 4890,
      "baby": 4891,
      "anda": 4892,
      "avy": 4893,
      "pursu": 4894,
      "ador": 4895,
      "gry": 4896,
      "anche": 4897,
      "moral": 4898,
      "guaran": 4899,
      "complic": 4900,
      "attorney": 4901,
      "ION": 4902,
      "DO": 4903,
      "voting": 4904,
      "pression": 4905,
      "plants": 4906,
      "opportun": 4907,
      "Bud": 4908,
      "NE": 4909,
      "pull": 4910,
      "render": 4911,
      "ero": 4912,
      "potentially": 4913,
      "rible": 4914,
      "DS": 4915,
      "streets": 4916,
      "Sports": 4917,
      "determine": 4918,
      "River": 4919,
      "urban": 4920,
      "vehicles": 4921,
      "rapid": 4922,
      "remove": 4923,
      "Ten": 4924,
      "1c": 4925,
      "modif": 4926,
      "Haw": 4927,
      "pointed": 4928,
      "1b": 4929,
      "listed": 4930,
      "occurred": 4931,
      "Cam": 4932,
      "Thank": 4933,
      "Human": 4934,
      "vulner": 4935,
      "icient": 4936,
      "ologies": 4937,
      "seasons": 4938,
      "sts": 4939,
      "advert": 4940,
      "violent": 4941,
      "assum": 4942,
      "92": 4943,
      "sale": 4944,
      "Jackson": 4945,
      "experienced": 4946,
      "cou": 4947,
      "Die": 4948,
      "plenty": 4949,
      "actor": 4950,
      "gor": 4951,
      "antly": 4952,
      "troops": 4953,
      "useum": 4954,
      "apart": 4955,
      "symbol": 4956,
      "CC": 4957,
      "faster": 4958,
      "weapon": 4959,
      "shape": 4960,
      "recru": 4961,
      "----------------": 4962,
      "expert": 4963,
      "thr": 4964,
      "DP": 4965,
      "liberal": 4966,
      "NY": 4967,
      "council": 4968,
      "Thanks": 4969,
      "approved": 4970,
      "resol": 4971,
      "System": 4972,
      "GO": 4973,
      "esterday": 4974,
      "Daily": 4975,
      "sphere": 4976,
      "Blo": 4977,
      "Vol": 4978,
      "governments": 4979,
      "ruling": 4980,
      "combat": 4981,
      "Four": 4982,
      "stance": 4983,
      "expressed": 4984,
      "bby": 4985,
      "cles": 4986,
      "proposal": 4987,
      "->": 4988,
      "factors": 4989,
      "factor": 4990,
      "retail": 4991,
      "ride": 4992,
      "monitor": 4993,
      "infrastructure": 4994,
      "originally": 4995,
      "BBC": 4996,
      "handle": 4997,
      "tested": 4998,
      "equipment": 4999,
      "truck": 5000,
      "serving": 5001,
      "Meanwhile": 5002,
      "bought": 5003,
      "Kar": 5004,
      "uster": 5005,
      "Spr": 5006,
      "relevant": 5007,
      "Island": 5008,
      "transl": 5009,
      "twitter": 5010,
      "refused": 5011,
      "ani": 5012,
      "eper": 5013,
      "wearing": 5014,
      "William": 5015,
      "shift": 5016,
      "methods": 5017,
      "uration": 5018,
      "offering": 5019,
      "challenges": 5020,
      "conducted": 5021,
      "Bus": 5022,
      "greatest": 5023,
      "los": 5024,
      "wis": 5025,
      "endment": 5026,
      "legit": 5027,
      "sam": 5028,
      "tradition": 5029,
      "defined": 5030,
      "nd": 5031,
      "regime": 5032,
      "leads": 5033,
      "consistent": 5034,
      "pa": 5035,
      "temporary": 5036,
      "obviously": 5037,
      "signs": 5038,
      "pal": 5039,
      "significantly": 5040,
      "Best": 5041,
      "ours": 5042,
      "250": 5043,
      "metal": 5044,
      "Dar": 5045,
      "Reuters": 5046,
      "ini": 5047,
      "Director": 5048,
      "percentage": 5049,
      "hall": 5050,
      "recorded": 5051,
      "treated": 5052,
      "letters": 5053,
      "cean": 5054,
      "Inde": 5055,
      "lymp": 5056,
      "indeed": 5057,
      "crew": 5058,
      "Py": 5059,
      "minimum": 5060,
      "distance": 5061,
      "Ohio": 5062,
      "decre": 5063,
      "insist": 5064,
      "motiv": 5065,
      "pages": 5066,
      "isher": 5067,
      "backs": 5068,
      "appreci": 5069,
      "tree": 5070,
      "guns": 5071,
      "wid": 5072,
      "Turkey": 5073,
      ",'": 5074,
      "supporting": 5075,
      "ureau": 5076,
      "DE": 5077,
      "remained": 5078,
      "saving": 5079,
      "parent": 5080,
      "Kim": 5081,
      "quie": 5082,
      "broke": 5083,
      "Labour": 5084,
      "youth": 5085,
      "apps": 5086,
      "Hou": 5087,
      "reduced": 5088,
      "Kur": 5089,
      "pin": 5090,
      "Arch": 5091,
      "Bas": 5092,
      "tally": 5093,
      "tournam": 5094,
      "weren": 5095,
      "visual": 5096,
      "rising": 5097,
      "Rod": 5098,
      "ashion": 5099,
      "Science": 5100,
      "View": 5101,
      "purchase": 5102,
      "Hen": 5103,
      "hurt": 5104,
      "oral": 5105,
      "ller": 5106,
      "Develo": 5107,
      "sac": 5108,
      "OF": 5109,
      "grew": 5110,
      "herself": 5111,
      "involve": 5112,
      "Rus": 5113,
      "basically": 5114,
      "controlled": 5115,
      "package": 5116,
      "powers": 5117,
      "contrast": 5118,
      "ti": 5119,
      "puts": 5120,
      "Loc": 5121,
      "considering": 5122,
      "calcul": 5123,
      "seriously": 5124,
      "bodies": 5125,
      "lit": 5126,
      "clin": 5127,
      "videos": 5128,
      "Conne": 5129,
      "GM": 5130,
      "aircraft": 5131,
      "Sea": 5132,
      "1a": 5133,
      "gri": 5134,
      "3c": 5135,
      "lists": 5136,
      "amin": 5137,
      "600": 5138,
      "identify": 5139,
      "revenue": 5140,
      "rick": 5141,
      "eds": 5142,
      "profile": 5143,
      "Wood": 5144,
      "cluded": 5145,
      "AND": 5146,
      "listen": 5147,
      "explos": 5148,
      "remaining": 5149,
      "films": 5150,
      "2c": 5151,
      "politicians": 5152,
      "discrim": 5153,
      "emergency": 5154,
      "ji": 5155,
      "Grand": 5156,
      "excited": 5157,
      "Sher": 5158,
      "TA": 5159,
      "ordered": 5160,
      "collap": 5161,
      "iger": 5162,
      "Again": 5163,
      "emphas": 5164,
      "1980": 5165,
      "Penn": 5166,
      "ita": 5167,
      "married": 5168,
      "2b": 5169,
      "proced": 5170,
      "narr": 5171,
      "shel": 5172,
      "txt00006440000000000000000000004": 5173,
      "txt00006440000000000000000000005": 5174,
      "ached": 5175,
      "enemy": 5176,
      "afternoon": 5177,
      "argued": 5178,
      "confidence": 5179,
      "Olymp": 5180,
      "root": 5181,
      "Squ": 5182,
      "mi": 5183,
      "advance": 5184,
      "shad": 5185,
      "raising": 5186,
      "enh": 5187,
      "Week": 5188,
      "completed": 5189,
      "ayed": 5190,
      "warm": 5191,
      "mates": 5192,
      "Its": 5193,
      "Ill": 5194,
      "reference": 5195,
      "reaction": 5196,
      "pulled": 5197,
      "moves": 5198,
      "concent": 5199,
      "proof": 5200,
      "typically": 5201,
      "square": 5202,
      "Fre": 5203,
      "OK": 5204,
      "panel": 5205,
      "ques": 5206,
      "fold": 5207,
      "differences": 5208,
      "Hal": 5209,
      "belong": 5210,
      "combined": 5211,
      "craz": 5212,
      "scor": 5213,
      "excell": 5214,
      "opportunities": 5215,
      "txt00006440000000000000000000003": 5216,
      "dream": 5217,
      "ache": 5218,
      "SP": 5219,
      "privacy": 5220,
      "RA": 5221,
      "struggle": 5222,
      "opposed": 5223,
      "entry": 5224,
      "blow": 5225,
      "consumers": 5226,
      "fest": 5227,
      "evening": 5228,
      "relations": 5229,
      "BO": 5230,
      "Du": 5231,
      "coast": 5232,
      "heads": 5233,
      "intent": 5234,
      "quant": 5235,
      "stal": 5236,
      "Fil": 5237,
      "writes": 5238,
      "Cre": 5239,
      "dish": 5240,
      "ensions": 5241,
      "ruption": 5242,
      "alcohol": 5243,
      "acted": 5244,
      "split": 5245,
      "2002": 5246,
      "Long": 5247,
      "stands": 5248,
      "Road": 5249,
      "founder": 5250,
      "fre": 5251,
      "Sar": 5252,
      "talked": 5253,
      "rier": 5254,
      "severe": 5255,
      "confident": 5256,
      "burg": 5257,
      "picked": 5258,
      "entertain": 5259,
      "appointed": 5260,
      "Whe": 5261,
      "gon": 5262,
      "patient": 5263,
      "3b": 5264,
      "franch": 5265,
      "responded": 5266,
      "frust": 5267,
      "writ": 5268,
      "stim": 5269,
      "linked": 5270,
      "Scot": 5271,
      "proceed": 5272,
      "hopes": 5273,
      "technical": 5274,
      "plom": 5275,
      "declared": 5276,
      "instruct": 5277,
      "widely": 5278,
      "Dec": 5279,
      "Muslims": 5280,
      "preced": 5281,
      "attempts": 5282,
      "cab": 5283,
      "dynam": 5284,
      "trouble": 5285,
      "element": 5286,
      "collabor": 5287,
      "default": 5288,
      "Braz": 5289,
      "dial": 5290,
      "promised": 5291,
      "PN": 5292,
      "ju": 5293,
      "Polit": 5294,
      "hat": 5295,
      "yard": 5296,
      "Tal": 5297,
      "client": 5298,
      "Clar": 5299,
      "Elect": 5300,
      "diag": 5301,
      "=>": 5302,
      "terrorist": 5303,
      "ulate": 5304,
      "renew": 5305,
      "kno": 5306,
      "ordinary": 5307,
      "rang": 5308,
      "CA": 5309,
      "driven": 5310,
      "Ire": 5311,
      "grown": 5312,
      "Saudi": 5313,
      "aine": 5314,
      "perman": 5315,
      "Ram": 5316,
      "giant": 5317,
      "appeal": 5318,
      "reporters": 5319,
      "Sovie": 5320,
      "ius": 5321,
      "transition": 5322,
      "ulty": 5323,
      "Afghanistan": 5324,
      "attr": 5325,
      "NBC": 5326,
      "utter": 5327,
      "caption": 5328,
      "assem": 5329,
      "elimin": 5330,
      "reporting": 5331,
      "denied": 5332,
      "route": 5333,
      "sharing": 5334,
      "intend": 5335,
      "Ul": 5336,
      "7c": 5337,
      "ski": 5338,
      "Next": 5339,
      "gam": 5340,
      "Class": 5341,
      "walking": 5342,
      "Seattle": 5343,
      "fairly": 5344,
      "Sky": 5345,
      "gate": 5346,
      "invent": 5347,
      "Ha": 5348,
      "ulated": 5349,
      "Call": 5350,
      "embr": 5351,
      "ISIS": 5352,
      "Stan": 5353,
      "Set": 5354,
      "Christmas": 5355,
      "Max": 5356,
      "matters": 5357,
      "crimes": 5358,
      "igation": 5359,
      "Youn": 5360,
      "bug": 5361,
      "prompt": 5362,
      "Three": 5363,
      "copyright": 5364,
      "numerous": 5365,
      "offee": 5366,
      "unable": 5367,
      "western": 5368,
      "terrorism": 5369,
      "resolution": 5370,
      "Work": 5371,
      "fd": 5372,
      "ipal": 5373,
      "Moun": 5374,
      "ogue": 5375,
      "necessarily": 5376,
      "prepar": 5377,
      "Michigan": 5378,
      "wire": 5379,
      "perspective": 5380,
      "Edit": 5381,
      "messages": 5382,
      "Ukraine": 5383,
      "injured": 5384,
      "Tube": 5385,
      "vey": 5386,
      "venture": 5387,
      "facts": 5388,
      "editor": 5389,
      "unte": 5390,
      "Take": 5391,
      ",[": 5392,
      "kn": 5393,
      "institutions": 5394,
      "depth": 5395,
      "movies": 5396,
      "yell": 5397,
      "artist": 5398,
      "sees": 5399,
      "til": 5400,
      "shouldn": 5401,
      "gia": 5402,
      "Inc": 5403,
      "UC": 5404,
      "Philip": 5405,
      "doctor": 5406,
      "Real": 5407,
      "advice": 5408,
      "delivered": 5409,
      "cher": 5410,
      "ongoing": 5411,
      "Card": 5412,
      "NBA": 5413,
      "6c": 5414,
      "pictures": 5415,
      "2a": 5416,
      "Enter": 5417,
      "archite": 5418,
      "debut": 5419,
      "wins": 5420,
      "NO": 5421,
      "reportedly": 5422,
      "zero": 5423,
      "radical": 5424,
      "7b": 5425,
      "friendly": 5426,
      "TS": 5427,
      "rooms": 5428,
      "admitted": 5429,
      "proud": 5430,
      "Vide": 5431,
      "suffered": 5432,
      "thoughts": 5433,
      "abled": 5434,
      "readers": 5435,
      "grab": 5436,
      "fashion": 5437,
      "icing": 5438,
      "experiences": 5439,
      "nav": 5440,
      "guest": 5441,
      "centre": 5442,
      "explains": 5443,
      "ader": 5444,
      "creative": 5445,
      "Commun": 5446,
      "earn": 5447,
      "Contin": 5448,
      "wed": 5449,
      "Romney": 5450,
      "pleas": 5451,
      "gro": 5452,
      "thro": 5453,
      "newspaper": 5454,
      "pra": 5455,
      "3a": 5456,
      "drivers": 5457,
      "contains": 5458,
      "Did": 5459,
      "agents": 5460,
      "wage": 5461,
      "Perhaps": 5462,
      "4c": 5463,
      "leaves": 5464,
      "pure": 5465,
      "updates": 5466,
      "Wik": 5467,
      "confirm": 5468,
      "evol": 5469,
      "articles": 5470,
      "emails": 5471,
      "habit": 5472,
      "FO": 5473,
      "nations": 5474,
      "Techn": 5475,
      "performed": 5476,
      "declined": 5477,
      "campus": 5478,
      "Greg": 5479,
      "democracy": 5480,
      "findings": 5481,
      "statements": 5482,
      "essentially": 5483,
      "Lake": 5484,
      "attribut": 5485,
      "publicly": 5486,
      "Lar": 5487,
      "forget": 5488,
      "exercise": 5489,
      "athlet": 5490,
      "substant": 5491,
      "config": 5492,
      "Div": 5493,
      "Test": 5494,
      "secretary": 5495,
      "Women": 5496,
      "plot": 5497,
      "enda": 5498,
      "lawyer": 5499,
      "oles": 5500,
      "cha": 5501,
      "Author": 5502,
      "industrial": 5503,
      "6b": 5504,
      "tle": 5505,
      "Swed": 5506,
      "motor": 5507,
      "Brazil": 5508,
      "accompl": 5509,
      "bike": 5510,
      "nergy": 5511,
      "effectively": 5512,
      "3D": 5513,
      "bare": 5514,
      "ternal": 5515,
      "000000000000152": 5516,
      "objects": 5517,
      "ilty": 5518,
      "activists": 5519,
      "Ireland": 5520,
      "realize": 5521,
      "examples": 5522,
      "iest": 5523,
      "inspired": 5524,
      "essential": 5525,
      "iPhone": 5526,
      "efficient": 5527,
      "encing": 5528,
      "buildings": 5529,
      "bear": 5530,
      "argue": 5531,
      "visible": 5532,
      "motion": 5533,
      "4b": 5534,
      "Fam": 5535,
      "covering": 5536,
      "thank": 5537,
      "adop": 5538,
      "Child": 5539,
      "000000000000153": 5540,
      "wave": 5541,
      "Further": 5542,
      "vac": 5543,
      "governor": 5544,
      "explan": 5545,
      "fighters": 5546,
      "Cop": 5547,
      "800": 5548,
      "marked": 5549,
      "Board": 5550,
      "db": 5551,
      "ourselves": 5552,
      "Jews": 5553,
      "Cub": 5554,
      "expansion": 5555,
      "81": 5556,
      "cip": 5557,
      "scheduled": 5558,
      "diplom": 5559,
      "ansas": 5560,
      "boss": 5561,
      "practices": 5562,
      "attract": 5563,
      "List": 5564,
      "Vict": 5565,
      "advanced": 5566,
      "ula": 5567,
      "5e": 5568,
      "cert": 5569,
      "criticism": 5570,
      "Old": 5571,
      "citizen": 5572,
      "trigger": 5573,
      "existence": 5574,
      "myster": 5575,
      "Key": 5576,
      "datab": 5577,
      "Story": 5578,
      "Barack": 5579,
      "Ann": 5580,
      "ancing": 5581,
      "neither": 5582,
      "causes": 5583,
      "Houston": 5584,
      "dependent": 5585,
      "magazine": 5586,
      "thinks": 5587,
      "5f": 5588,
      "initially": 5589,
      "allegations": 5590,
      "ulations": 5591,
      "totally": 5592,
      "illi": 5593,
      "Common": 5594,
      "isol": 5595,
      "7a": 5596,
      "stretch": 5597,
      "implic": 5598,
      "Love": 5599,
      "injuries": 5600,
      "abandon": 5601,
      "ionally": 5602,
      "desire": 5603,
      "subsequ": 5604,
      "Stand": 5605,
      "warned": 5606,
      "Econom": 5607,
      "Palestinian": 5608,
      "accepted": 5609,
      "ml": 5610,
      "situ": 5611,
      "ME": 5612,
      "Brook": 5613,
      "stag": 5614,
      "120": 5615,
      "chip": 5616,
      "bott": 5617,
      "photograph": 5618,
      "ause": 5619,
      "Games": 5620,
      "drawn": 5621,
      "everybody": 5622,
      "agers": 5623,
      "rally": 5624,
      "mountain": 5625,
      "improved": 5626,
      "Mot": 5627,
      "roughly": 5628,
      "playoff": 5629,
      "Share": 5630,
      "materials": 5631,
      "disput": 5632,
      "otic": 5633,
      "Asia": 5634,
      "Bul": 5635,
      "fru": 5636,
      "Care": 5637,
      "cus": 5638,
      "Club": 5639,
      "earned": 5640,
      "Way": 5641,
      "shif": 5642,
      "Korean": 5643,
      "rd": 5644,
      "YouTube": 5645,
      "Colorado": 5646,
      "atmo": 5647,
      "olar": 5648,
      "Ky": 5649,
      "links": 5650,
      "Profess": 5651,
      "Click": 5652,
      "hibit": 5653,
      "historical": 5654,
      "surprised": 5655,
      "offense": 5656,
      "scored": 5657,
      "represents": 5658,
      "announcement": 5659,
      "classes": 5660,
      "earning": 5661,
      "Link": 5662,
      "aught": 5663,
      "stores": 5664,
      "rem": 5665,
      "discussed": 5666,
      "passeng": 5667,
      "000000000000146": 5668,
      "Kevin": 5669,
      "Van": 5670,
      "consumer": 5671,
      "Jesus": 5672,
      "prin": 5673,
      "increases": 5674,
      "yesterday": 5675,
      "gap": 5676,
      "pover": 5677,
      "library": 5678,
      "pattern": 5679,
      "ola": 5680,
      "Champion": 5681,
      "Por": 5682,
      "applied": 5683,
      "Charles": 5684,
      "Source": 5685,
      "Nov": 5686,
      "Cast": 5687,
      "hypo": 5688,
      "Prem": 5689,
      "posts": 5690,
      "Soviet": 5691,
      "expression": 5692,
      "Holly": 5693,
      "ets": 5694,
      "guilty": 5695,
      "backed": 5696,
      "storage": 5697,
      "Daniel": 5698,
      "entered": 5699,
      "flood": 5700,
      "communications": 5701,
      "Naz": 5702,
      "ERS": 5703,
      "consequences": 5704,
      "begins": 5705,
      "island": 5706,
      "hell": 5707,
      "illance": 5708,
      "Davis": 5709,
      "4a": 5710,
      "follows": 5711,
      "pray": 5712,
      "classic": 5713,
      "irty": 5714,
      "Wr": 5715,
      "utch": 5716,
      "6a": 5717,
      "ena": 5718,
      "CS": 5719,
      "Come": 5720,
      "combination": 5721,
      "distribution": 5722,
      "nearby": 5723,
      "Roman": 5724,
      "threats": 5725,
      "sought": 5726,
      "Data": 5727,
      "storm": 5728,
      "trick": 5729,
      "adds": 5730,
      "cere": 5731,
      "approxim": 5732,
      "Bat": 5733,
      "pipe": 5734,
      "Bi": 5735,
      "pushed": 5736,
      "Eli": 5737,
      "functions": 5738,
      "protected": 5739,
      "defe": 5740,
      "mond": 5741,
      "genet": 5742,
      "versions": 5743,
      "rage": 5744,
      "Check": 5745,
      "91": 5746,
      "forth": 5747,
      "brings": 5748,
      "highlight": 5749,
      "rev": 5750,
      "temperature": 5751,
      "Putin": 5752,
      "rape": 5753,
      "clar": 5754,
      "songs": 5755,
      "locked": 5756,
      "snow": 5757,
      "Wis": 5758,
      "Ital": 5759,
      "Tay": 5760,
      "fuck": 5761,
      "receiving": 5762,
      "sters": 5763,
      "norm": 5764,
      "athan": 5765,
      "Young": 5766,
      "branch": 5767,
      "winter": 5768,
      "missions": 5769,
      "evolution": 5770,
      "whel": 5771,
      "unlikely": 5772,
      "quir": 5773,
      "gal": 5774,
      "manage": 5775,
      "lean": 5776,
      "::": 5777,
      "hole": 5778,
      "conven": 5779,
      "investors": 5780,
      "bench": 5781,
      "restaurant": 5782,
      "parliament": 5783,
      "buying": 5784,
      "Defense": 5785,
      "fraud": 5786,
      "dad": 5787,
      "Arizon": 5788,
      "reasonable": 5789,
      "Ah": 5790,
      "obl": 5791,
      "angers": 5792,
      "stable": 5793,
      "iously": 5794,
      "sufficient": 5795,
      "quarters": 5796,
      "lawsuit": 5797,
      "marketing": 5798,
      "CIA": 5799,
      "waste": 5800,
      "networks": 5801,
      "duc": 5802,
      "Energy": 5803,
      "neut": 5804,
      "Rights": 5805,
      "cape": 5806,
      "Tit": 5807,
      "inary": 5808,
      "guid": 5809,
      "wers": 5810,
      "heavily": 5811,
      "competitive": 5812,
      "somewhat": 5813,
      "pace": 5814,
      "scar": 5815,
      "Mu": 5816,
      "Eric": 5817,
      "noticed": 5818,
      "icts": 5819,
      "knock": 5820,
      "fasc": 5821,
      "math": 5822,
      "anywhere": 5823,
      "index": 5824,
      "nab": 5825,
      "Gor": 5826,
      "favour": 5827,
      "houses": 5828,
      "bright": 5829,
      "flash": 5830,
      "gang": 5831,
      "operate": 5832,
      "liqu": 5833,
      "division": 5834,
      "targets": 5835,
      "Dam": 5836,
      "younger": 5837,
      "8f": 5838,
      "succeed": 5839,
      "flat": 5840,
      "Lord": 5841,
      "protests": 5842,
      "9f": 5843,
      "Vis": 5844,
      "Arizona": 5845,
      "andal": 5846,
      "emotional": 5847,
      "ails": 5848,
      "CD": 5849,
      "colleagues": 5850,
      "approval": 5851,
      "resent": 5852,
      "Cruz": 5853,
      "1970": 5854,
      "SH": 5855,
      "shit": 5856,
      "crazy": 5857,
      "deaths": 5858,
      "importance": 5859,
      "acle": 5860,
      "9e": 5861,
      "sick": 5862,
      "theless": 5863,
      "plug": 5864,
      "lift": 5865,
      "8e": 5866,
      "Dun": 5867,
      "accurate": 5868,
      "height": 5869,
      "replaced": 5870,
      "Land": 5871,
      "trave": 5872,
      "usal": 5873,
      "hid": 5874,
      "mate": 5875,
      "Never": 5876,
      "promin": 5877,
      "carrying": 5878,
      "illust": 5879,
      "doctors": 5880,
      "regulations": 5881,
      "TR": 5882,
      "allegedly": 5883,
      "Catholic": 5884,
      "Constitution": 5885,
      "customer": 5886,
      "demo": 5887,
      "Camer": 5888,
      "opposite": 5889,
      "lobby": 5890,
      "bels": 5891,
      "NASA": 5892,
      "Java": 5893,
      "Bor": 5894,
      "volunte": 5895,
      "Invest": 5896,
      "BM": 5897,
      "volume": 5898,
      "Unfortunately": 5899,
      "Ali": 5900,
      "adults": 5901,
      "GP": 5902,
      "facility": 5903,
      "signing": 5904,
      "abortion": 5905,
      "issions": 5906,
      "hardware": 5907,
      "communication": 5908,
      "authors": 5909,
      "HS": 5910,
      "doors": 5911,
      "output": 5912,
      "wound": 5913,
      "meat": 5914,
      "column": 5915,
      "tiny": 5916,
      "acknowled": 5917,
      "dim": 5918,
      "fli": 5919,
      "moments": 5920,
      "Valley": 5921,
      "Finally": 5922,
      "aside": 5923,
      "Run": 5924,
      "covery": 5925,
      "Shar": 5926,
      "Oct": 5927,
      "guide": 5928,
      "agan": 5929,
      "handed": 5930,
      "iency": 5931,
      "km": 5932,
      "chairman": 5933,
      "joint": 5934,
      "Span": 5935,
      "excellent": 5936,
      "opponent": 5937,
      "hoping": 5938,
      "Miller": 5939,
      "Harris": 5940,
      "frequently": 5941,
      "700": 5942,
      "expl": 5943,
      "pregn": 5944,
      "Light": 5945,
      "immediate": 5946,
      "returns": 5947,
      "headed": 5948,
      "oul": 5949,
      "coordin": 5950,
      "properly": 5951,
      "featured": 5952,
      "Adam": 5953,
      "understood": 5954,
      "suffering": 5955,
      "fewer": 5956,
      "passion": 5957,
      "fixed": 5958,
      "eating": 5959,
      "closely": 5960,
      "pred": 5961,
      "Ret": 5962,
      "harder": 5963,
      "oked": 5964,
      "incent": 5965,
      "',": 5966,
      "ancient": 5967,
      "referred": 5968,
      "Hot": 5969,
      "Dig": 5970,
      "controversial": 5971,
      "Ass": 5972,
      "desk": 5973,
      "struck": 5974,
      "HD": 5975,
      "literally": 5976,
      "Water": 5977,
      "fundamental": 5978,
      "VR": 5979,
      "manner": 5980,
      "trend": 5981,
      "ulture": 5982,
      "aint": 5983,
      "instru": 5984,
      "esome": 5985,
      "Special": 5986,
      "deeply": 5987,
      "sand": 5988,
      "ati": 5989,
      "detailed": 5990,
      "welcome": 5991,
      "strange": 5992,
      "assets": 5993,
      "Jord": 5994,
      "watched": 5995,
      "remot": 5996,
      "jection": 5997,
      "cutting": 5998,
      "Tot": 5999,
      "burn": 6000,
      "updated": 6001,
      "VER": 6002,
      "tournament": 6003,
      "Wilson": 6004,
      "pit": 6005,
      "regional": 6006,
      "ros": 6007,
      "reads": 6008,
      "immigrants": 6009,
      "participants": 6010,
      "kne": 6011,
      "circumstances": 6012,
      "osen": 6013,
      "0x": 6014,
      "mile": 6015,
      "suicide": 6016,
      "locations": 6017,
      "Fer": 6018,
      "extent": 6019,
      "inet": 6020,
      "Brian": 6021,
      "observ": 6022,
      "LO": 6023,
      "fields": 6024,
      "(\"": 6025,
      "relationships": 6026,
      "Detro": 6027,
      "preh": 6028,
      "Station": 6029,
      "pushing": 6030,
      "describe": 6031,
      "intel": 6032,
      "virtual": 6033,
      "fron": 6034,
      "inning": 6035,
      "Stephen": 6036,
      "Detroit": 6037,
      "yl": 6038,
      "izon": 6039,
      "Ra": 6040,
      "reput": 6041,
      "indu": 6042,
      "causing": 6043,
      "artists": 6044,
      "pto": 6045,
      "proved": 6046,
      "defic": 6047,
      "ctic": 6048,
      "acce": 6049,
      "cue": 6050,
      "claiming": 6051,
      "decline": 6052,
      "Make": 6053,
      "Hun": 6054,
      "subsid": 6055,
      "Oper": 6056,
      "kinds": 6057,
      "shr": 6058,
      "targeted": 6059,
      "txt00006440000000000000000000012": 6060,
      "commitment": 6061,
      "sentence": 6062,
      "onom": 6063,
      "stab": 6064,
      "Among": 6065,
      "Has": 6066,
      "Dark": 6067,
      "Attor": 6068,
      "repeatedly": 6069,
      "gg": 6070,
      "dry": 6071,
      "SU": 6072,
      "eline": 6073,
      "mainstream": 6074,
      "knowing": 6075,
      "wash": 6076,
      "precise": 6077,
      "hotel": 6078,
      "topic": 6079,
      "ii": 6080,
      "alongside": 6081,
      "sister": 6082,
      "dedicated": 6083,
      "maker": 6084,
      "attempted": 6085,
      "arden": 6086,
      "founded": 6087,
      "Which": 6088,
      "Pacific": 6089,
      "administr": 6090,
      "ading": 6091,
      "overwhel": 6092,
      "aced": 6093,
      "wan": 6094,
      "studio": 6095,
      "iron": 6096,
      "realized": 6097,
      "schedule": 6098,
      "diagno": 6099,
      "cloud": 6100,
      "basket": 6101,
      "universe": 6102,
      "drag": 6103,
      "kil": 6104,
      "upcoming": 6105,
      "typical": 6106,
      "franchise": 6107,
      "dc": 6108,
      "Night": 6109,
      "wake": 6110,
      "coffee": 6111,
      "approximately": 6112,
      "likes": 6113,
      "walked": 6114,
      "empty": 6115,
      "Report": 6116,
      "LL": 6117,
      "unknown": 6118,
      "%)": 6119,
      "($": 6120,
      "tent": 6121,
      "magic": 6122,
      "agenda": 6123,
      "remote": 6124,
      "observed": 6125,
      "isms": 6126,
      "funded": 6127,
      "directed": 6128,
      "Dri": 6129,
      "dealing": 6130,
      "surveillance": 6131,
      "tex": 6132,
      "journey": 6133,
      "ario": 6134,
      "odd": 6135,
      "sample": 6136,
      "Pen": 6137,
      "bat": 6138,
      "teachers": 6139,
      "ensus": 6140,
      "wart": 6141,
      "ias": 6142,
      "Live": 6143,
      "Nick": 6144,
      "latter": 6145,
      "Met": 6146,
      "reward": 6147,
      "Jr": 6148,
      "selection": 6149,
      "Hollywood": 6150,
      "flex": 6151,
      "Organ": 6152,
      "channel": 6153,
      "Yeah": 6154,
      "boot": 6155,
      "ears": 6156,
      "haw": 6157,
      "payment": 6158,
      "teacher": 6159,
      "opponents": 6160,
      "selected": 6161,
      "exciting": 6162,
      "constitutional": 6163,
      "battery": 6164,
      "informed": 6165,
      "inated": 6166,
      "conver": 6167,
      "adel": 6168,
      "d0": 6169,
      "vices": 6170,
      "atell": 6171,
      "Jordan": 6172,
      "input": 6173,
      "rog": 6174,
      "Such": 6175,
      "itarian": 6176,
      "winner": 6177,
      "dogs": 6178,
      "deck": 6179,
      "represented": 6180,
      "ciples": 6181,
      "sending": 6182,
      "gery": 6183,
      "Os": 6184,
      "extended": 6185,
      "Miami": 6186,
      "Gaz": 6187,
      "congress": 6188,
      "vacc": 6189,
      "alive": 6190,
      "txt00006440000000000000000000013": 6191,
      "properties": 6192,
      "encounter": 6193,
      "fifth": 6194,
      "1999": 6195,
      "impressive": 6196,
      "edition": 6197,
      "Vi": 6198,
      "surrounding": 6199,
      "pu": 6200,
      "cipl": 6201,
      "Ray": 6202,
      "inher": 6203,
      "protesters": 6204,
      "inations": 6205,
      "anx": 6206,
      "tank": 6207,
      "zo": 6208,
      "Av": 6209,
      "Georgia": 6210,
      "ums": 6211,
      "NS": 6212,
      "Irish": 6213,
      "audio": 6214,
      "refugees": 6215,
      "Pay": 6216,
      "orient": 6217,
      "mistake": 6218,
      "Labor": 6219,
      "Kelly": 6220,
      "Italy": 6221,
      "honor": 6222,
      "Have": 6223,
      "Administ": 6224,
      "sweet": 6225,
      "DNA": 6226,
      "Ash": 6227,
      "Revie": 6228,
      "iat": 6229,
      "convent": 6230,
      "tes": 6231,
      "deput": 6232,
      "Spanish": 6233,
      "Ford": 6234,
      "acing": 6235,
      "narrow": 6236,
      "possess": 6237,
      "tox": 6238,
      "flav": 6239,
      "Company": 6240,
      "fees": 6241,
      "aven": 6242,
      "poverty": 6243,
      "upper": 6244,
      "remark": 6245,
      "angle": 6246,
      "Dem": 6247,
      "TC": 6248,
      "northern": 6249,
      "istry": 6250,
      "sharp": 6251,
      "definition": 6252,
      "risks": 6253,
      "deser": 6254,
      "blame": 6255,
      "resistance": 6256,
      "anyway": 6257,
      "defeat": 6258,
      "Asian": 6259,
      "phase": 6260,
      "Senator": 6261,
      "Josh": 6262,
      "lla": 6263,
      "adult": 6264,
      "attacked": 6265,
      "requirements": 6266,
      "limits": 6267,
      "Rog": 6268,
      "destroyed": 6269,
      "txt00006440000000000000000000006": 6270,
      "iments": 6271,
      "theme": 6272,
      "kel": 6273,
      "writers": 6274,
      "punish": 6275,
      "pressed": 6276,
      "matches": 6277,
      "theast": 6278,
      "Thus": 6279,
      "Orig": 6280,
      "equival": 6281,
      "promote": 6282,
      "ills": 6283,
      "maximum": 6284,
      "consult": 6285,
      "tric": 6286,
      "legally": 6287,
      "strikes": 6288,
      "wheel": 6289,
      "ils": 6290,
      "folks": 6291,
      "phenomen": 6292,
      "Victor": 6293,
      "Tele": 6294,
      "organized": 6295,
      "Society": 6296,
      "retire": 6297,
      "Business": 6298,
      "involving": 6299,
      "icken": 6300,
      "mann": 6301,
      "anony": 6302,
      "format": 6303,
      "ensity": 6304,
      "license": 6305,
      "requests": 6306,
      "suddenly": 6307,
      "Attorney": 6308,
      "III": 6309,
      "Turk": 6310,
      "eb": 6311,
      "110": 6312,
      "merely": 6313,
      "++": 6314,
      "Sever": 6315,
      "bunch": 6316,
      "Moore": 6317,
      "territory": 6318,
      "slowly": 6319,
      "phr": 6320,
      "scenes": 6321,
      "exposed": 6322,
      "Joseph": 6323,
      "Disney": 6324,
      "rival": 6325,
      "intention": 6326,
      "loan": 6327,
      "ashed": 6328,
      "weigh": 6329,
      "Dall": 6330,
      "explic": 6331,
      "NHL": 6332,
      "deals": 6333,
      "clock": 6334,
      "ruled": 6335,
      "satisf": 6336,
      "144": 6337,
      "divers": 6338,
      "worried": 6339,
      "chose": 6340,
      "Dead": 6341,
      "strongly": 6342,
      "Network": 6343,
      "Civil": 6344,
      "harass": 6345,
      "holiday": 6346,
      "cheap": 6347,
      "quarterback": 6348,
      "))": 6349,
      "arguments": 6350,
      "intellect": 6351,
      "CL": 6352,
      "Jersey": 6353,
      "colon": 6354,
      "escape": 6355,
      "assume": 6356,
      "Wild": 6357,
      "allies": 6358,
      "chap": 6359,
      "greg": 6360,
      "Foot": 6361,
      "Gir": 6362,
      "Us": 6363,
      "Start": 6364,
      "Cross": 6365,
      "servers": 6366,
      "apol": 6367,
      "worker": 6368,
      "duty": 6369,
      "supports": 6370,
      "shell": 6371,
      "iants": 6372,
      "Indeed": 6373,
      "IF": 6374,
      "inals": 6375,
      "Agency": 6376,
      "correspond": 6377,
      "Educ": 6378,
      "officially": 6379,
      "squad": 6380,
      "itable": 6381,
      "payments": 6382,
      "recognize": 6383,
      "expo": 6384,
      "yo": 6385,
      "blind": 6386,
      "awn": 6387,
      "deleg": 6388,
      "CR": 6389,
      "stein": 6390,
      "facilities": 6391,
      "solve": 6392,
      "Tony": 6393,
      "SO": 6394,
      "regions": 6395,
      "somehow": 6396,
      "mixed": 6397,
      "employee": 6398,
      "Kir": 6399,
      "infect": 6400,
      "engage": 6401,
      "fake": 6402,
      "falling": 6403,
      "valuable": 6404,
      "scheme": 6405,
      "successfully": 6406,
      "stack": 6407,
      "personally": 6408,
      "Does": 6409,
      "nomine": 6410,
      "cling": 6411,
      "somewhere": 6412,
      "flying": 6413,
      "critics": 6414,
      "Global": 6415,
      "axy": 6416,
      "Fall": 6417,
      "LGB": 6418,
      "WE": 6419,
      "Sometimes": 6420,
      "actors": 6421,
      "enable": 6422,
      "lum": 6423,
      "emen": 6424,
      "inson": 6425,
      "village": 6426,
      "journalists": 6427,
      "Program": 6428,
      "Services": 6429,
      "WH": 6430,
      "ideal": 6431,
      "database": 6432,
      "Gra": 6433,
      "pilot": 6434,
      "insul": 6435,
      "GE": 6436,
      "hits": 6437,
      "condem": 6438,
      "cos": 6439,
      "mayor": 6440,
      "captured": 6441,
      "category": 6442,
      "Taylor": 6443,
      "Tem": 6444,
      "trees": 6445,
      "conspir": 6446,
      "Academ": 6447,
      "endor": 6448,
      "comparison": 6449,
      "capture": 6450,
      "conv": 6451,
      "Scotland": 6452,
      "Minnes": 6453,
      "isan": 6454,
      "Lad": 6455,
      "History": 6456,
      "Video": 6457,
      "Foreign": 6458,
      "generated": 6459,
      "dozen": 6460,
      "desper": 6461,
      "emissions": 6462,
      "Mob": 6463,
      "asser": 6464,
      "coll": 6465,
      "goods": 6466,
      "robot": 6467,
      "Linux": 6468,
      "obtained": 6469,
      "mony": 6470,
      "cannab": 6471,
      "dated": 6472,
      "fection": 6473,
      "owed": 6474,
      "Following": 6475,
      "chosen": 6476,
      "polls": 6477,
      "encourage": 6478,
      "southern": 6479,
      "000000000000154": 6480,
      "interpret": 6481,
      "Southern": 6482,
      "illing": 6483,
      "LGBT": 6484,
      "Dallas": 6485,
      "oph": 6486,
      "Spain": 6487,
      "Food": 6488,
      "Pack": 6489,
      "registered": 6490,
      "PG": 6491,
      "owa": 6492,
      "ende": 6493,
      "prise": 6494,
      "shire": 6495,
      "Italian": 6496,
      "generate": 6497,
      "ented": 6498,
      "spoken": 6499,
      "meetings": 6500,
      "diet": 6501,
      "developer": 6502,
      "extensive": 6503,
      "primarily": 6504,
      "estate": 6505,
      "myth": 6506,
      "Nations": 6507,
      "intim": 6508,
      "constit": 6509,
      "stronger": 6510,
      "iti": 6511,
      "roads": 6512,
      "perfectly": 6513,
      "anticip": 6514,
      "None": 6515,
      "Pad": 6516,
      "electricity": 6517,
      "Op": 6518,
      "Wel": 6519,
      "Without": 6520,
      "ye": 6521,
      "grav": 6522,
      "purposes": 6523,
      "racial": 6524,
      "ptions": 6525,
      "awesome": 6526,
      "compreh": 6527,
      "Pop": 6528,
      "gall": 6529,
      "aggressive": 6530,
      "somebody": 6531,
      "petition": 6532,
      "Wars": 6533,
      "scape": 6534,
      "cin": 6535,
      "pha": 6536,
      "trading": 6537,
      "zens": 6538,
      "threatened": 6539,
      "retain": 6540,
      "finds": 6541,
      "Develop": 6542,
      "eda": 6543,
      "closure": 6544,
      "Ba": 6545,
      "publish": 6546,
      "Minnesota": 6547,
      "distinct": 6548,
      "itors": 6549,
      "warming": 6550,
      "discipl": 6551,
      "nels": 6552,
      "components": 6553,
      "Major": 6554,
      "gaming": 6555,
      "ht": 6556,
      "amounts": 6557,
      "Prince": 6558,
      "scan": 6559,
      "nobody": 6560,
      "Season": 6561,
      "Fal": 6562,
      "scow": 6563,
      "reck": 6564,
      "regularly": 6565,
      "tied": 6566,
      "Name": 6567,
      "span": 6568,
      "adapt": 6569,
      "blocks": 6570,
      "Through": 6571,
      "answers": 6572,
      "reveal": 6573,
      "employed": 6574,
      "apy": 6575,
      "Ut": 6576,
      "rolling": 6577,
      "affil": 6578,
      "Music": 6579,
      "esy": 6580,
      "parking": 6581,
      "rejected": 6582,
      "Jason": 6583,
      "Kr": 6584,
      "Series": 6585,
      "narrative": 6586,
      "solutions": 6587,
      "loaded": 6588,
      "estimates": 6589,
      "Win": 6590,
      "Nation": 6591,
      "exists": 6592,
      "Democrat": 6593,
      "keys": 6594,
      "1998": 6595,
      "constantly": 6596,
      "Bron": 6597,
      "seats": 6598,
      "institution": 6599,
      "titles": 6600,
      "manufactur": 6601,
      "stuck": 6602,
      "programming": 6603,
      "WS": 6604,
      "rational": 6605,
      "starter": 6606,
      "province": 6607,
      "ains": 6608,
      "Comm": 6609,
      "technologies": 6610,
      "installed": 6611,
      "cuit": 6612,
      "signal": 6613,
      "aser": 6614,
      "aspects": 6615,
      "Vo": 6616,
      "bath": 6617,
      "Boy": 6618,
      "Ever": 6619,
      "Given": 6620,
      "afr": 6621,
      "Bon": 6622,
      "drawing": 6623,
      "d5": 6624,
      "drinking": 6625,
      "choices": 6626,
      "illy": 6627,
      "enemies": 6628,
      "tort": 6629,
      "Dre": 6630,
      "util": 6631,
      "incredible": 6632,
      "resulting": 6633,
      "bitcoin": 6634,
      "continuing": 6635,
      "Oreg": 6636,
      "embar": 6637,
      "Henry": 6638,
      "compens": 6639,
      "spell": 6640,
      "angry": 6641,
      "asts": 6642,
      "Tour": 6643,
      "Rick": 6644,
      "excess": 6645,
      "anymore": 6646,
      "terrible": 6647,
      "passes": 6648,
      "outcome": 6649,
      "incredibly": 6650,
      "Fran": 6651,
      "plastic": 6652,
      "contributed": 6653,
      "shares": 6654,
      "elsewhere": 6655,
      "controls": 6656,
      "Stat": 6657,
      "Oregon": 6658,
      "info": 6659,
      "enthus": 6660,
      "baseball": 6661,
      "rence": 6662,
      "itar": 6663,
      "cited": 6664,
      "keeps": 6665,
      "bills": 6666,
      "worldwide": 6667,
      "eman": 6668,
      "admit": 6669,
      "hidden": 6670,
      "Use": 6671,
      "coalition": 6672,
      "Metro": 6673,
      "ders": 6674,
      "Hard": 6675,
      "geo": 6676,
      "cers": 6677,
      "Sk": 6678,
      "assistant": 6679,
      "attended": 6680,
      "historic": 6681,
      "privile": 6682,
      "Cat": 6683,
      "Keep": 6684,
      "Cir": 6685,
      "concluded": 6686,
      "TP": 6687,
      "reporter": 6688,
      "engineering": 6689,
      "oration": 6690,
      "atmosphere": 6691,
      "grees": 6692,
      "recovery": 6693,
      "clients": 6694,
      "Chan": 6695,
      "routine": 6696,
      "complicated": 6697,
      "situations": 6698,
      "crucial": 6699,
      "inspir": 6700,
      "county": 6701,
      "ogy": 6702,
      "Snow": 6703,
      "tection": 6704,
      "neur": 6705,
      "Iowa": 6706,
      "apartment": 6707,
      "zing": 6708,
      "ticket": 6709,
      "visited": 6710,
      "Dom": 6711,
      "ABC": 6712,
      "bio": 6713,
      "Lam": 6714,
      "rose": 6715,
      "Rose": 6716,
      "permanent": 6717,
      "Moscow": 6718,
      "Kent": 6719,
      "pel": 6720,
      "machines": 6721,
      "engaged": 6722,
      "powered": 6723,
      "Pi": 6724,
      "rol": 6725,
      "manip": 6726,
      "consumption": 6727,
      "rein": 6728,
      "icted": 6729,
      "corruption": 6730,
      "ua": 6731,
      "elines": 6732,
      "bull": 6733,
      "ilit": 6734,
      "Fort": 6735,
      "courts": 6736,
      "Tar": 6737,
      "explanation": 6738,
      "demands": 6739,
      "lder": 6740,
      "returning": 6741,
      "HP": 6742,
      "contest": 6743,
      "Using": 6744,
      "vard": 6745,
      "Head": 6746,
      "satell": 6747,
      "neutral": 6748,
      "Mir": 6749,
      "depending": 6750,
      "tracks": 6751,
      "DR": 6752,
      "Ur": 6753,
      "prec": 6754,
      "enders": 6755,
      "penalty": 6756,
      "newly": 6757,
      "2019": 6758,
      "productive": 6759,
      "Parliament": 6760,
      "sme": 6761,
      "Judge": 6762,
      "SC": 6763,
      "pse": 6764,
      "taught": 6765,
      "medium": 6766,
      "sider": 6767,
      ".\"[": 6768,
      "aland": 6769,
      "roster": 6770,
      "tap": 6771,
      "spons": 6772,
      "Sir": 6773,
      "Northern": 6774,
      "feedback": 6775,
      "TE": 6776,
      "amber": 6777,
      "define": 6778,
      "granted": 6779,
      "oster": 6780,
      "Cred": 6781,
      "uated": 6782,
      "mining": 6783,
      "explore": 6784,
      "CBS": 6785,
      "finance": 6786,
      "enor": 6787,
      "producing": 6788,
      "conclusion": 6789,
      "Greek": 6790,
      "lined": 6791,
      "complaint": 6792,
      "NAT": 6793,
      "rely": 6794,
      "Rand": 6795,
      "Eastern": 6796,
      "Little": 6797,
      "liked": 6798,
      "equivalent": 6799,
      "firms": 6800,
      "Mah": 6801,
      "Gov": 6802,
      "Core": 6803,
      "afraid": 6804,
      "assistance": 6805,
      "placing": 6806,
      "Field": 6807,
      "academic": 6808,
      "degrees": 6809,
      "reaching": 6810,
      "laid": 6811,
      "chances": 6812,
      "elig": 6813,
      "Wiscons": 6814,
      "punch": 6815,
      "cock": 6816,
      "pson": 6817,
      "elite": 6818,
      "Anth": 6819,
      "comic": 6820,
      "fiction": 6821,
      "defence": 6822,
      "ologist": 6823,
      "veteran": 6824,
      "Alab": 6825,
      "adelph": 6826,
      "%.": 6827,
      "Script": 6828,
      "Harry": 6829,
      "browser": 6830,
      "Fair": 6831,
      "Juli": 6832,
      "techniques": 6833,
      "sures": 6834,
      "hes": 6835,
      "Contro": 6836,
      "Whether": 6837,
      "asted": 6838,
      "Manche": 6839,
      "suspic": 6840,
      "teaching": 6841,
      "det": 6842,
      "ole": 6843,
      "Bell": 6844,
      "mainly": 6845,
      "surgery": 6846,
      "Kat": 6847,
      "Wat": 6848,
      "holders": 6849,
      "Bol": 6850,
      "regardless": 6851,
      "vulnerable": 6852,
      "cogn": 6853,
      "taste": 6854,
      "1960": 6855,
      "Wisconsin": 6856,
      "Manchester": 6857,
      "factory": 6858,
      "cable": 6859,
      "ote": 6860,
      "Philadelph": 6861,
      "Jay": 6862,
      "funny": 6863,
      "automatically": 6864,
      "lawmakers": 6865,
      "rub": 6866,
      "altern": 6867,
      "200000000000015": 6868,
      "Radio": 6869,
      "Dev": 6870,
      "establishment": 6871,
      "........": 6872,
      "iser": 6873,
      "aimed": 6874,
      "sect": 6875,
      "toler": 6876,
      "fought": 6877,
      "fab": 6878,
      "exposure": 6879,
      "Viet": 6880,
      "Professor": 6881,
      "txt00006440000000000000000000002": 6882,
      "Bry": 6883,
      "Battle": 6884,
      "scoring": 6885,
      "atom": 6886,
      "mort": 6887,
      "formal": 6888,
      "000000000000014": 6889,
      "discrimination": 6890,
      "disaster": 6891,
      "collected": 6892,
      "propag": 6893,
      "gorith": 6894,
      "stations": 6895,
      "Fund": 6896,
      "recording": 6897,
      "chart": 6898,
      "rey": 6899,
      "shirt": 6900,
      "Policy": 6901,
      "100000000000015": 6902,
      "Philadelphia": 6903,
      "weird": 6904,
      "forcing": 6905,
      "Plus": 6906,
      "Bowl": 6907,
      "Coast": 6908,
      "ea": 6909,
      "fc": 6910,
      "Hay": 6911,
      "busy": 6912,
      "loop": 6913,
      "Gall": 6914,
      "intense": 6915,
      "possession": 6916,
      "cod": 6917,
      "Build": 6918,
      "foundation": 6919,
      "entit": 6920,
      "layer": 6921,
      "Sn": 6922,
      "Royal": 6923,
      "Lim": 6924,
      "Hit": 6925,
      "fis": 6926,
      "survive": 6927,
      "idency": 6928,
      "Ow": 6929,
      "uncertain": 6930,
      "yield": 6931,
      "Oak": 6932,
      "drew": 6933,
      "Current": 6934,
      "Mayor": 6935,
      "Command": 6936,
      "emerged": 6937,
      "Son": 6938,
      "cel": 6939,
      "ESPN": 6940,
      "Master": 6941,
      "Premier": 6942,
      "lawyers": 6943,
      "extension": 6944,
      "Having": 6945,
      "partnership": 6946,
      "Anton": 6947,
      "Several": 6948,
      "brid": 6949,
      "proven": 6950,
      "neuro": 6951,
      "Offic": 6952,
      "posit": 6953,
      "principles": 6954,
      "trained": 6955,
      "thousand": 6956,
      "grass": 6957,
      "compete": 6958,
      "pounds": 6959,
      "enjoyed": 6960,
      "========": 6961,
      "finger": 6962,
      "gus": 6963,
      "Code": 6964,
      "reputation": 6965,
      "processes": 6966,
      "processing": 6967,
      "Alabama": 6968,
      "zed": 6969,
      "f0": 6970,
      "Bir": 6971,
      "125": 6972,
      "300000000000015": 6973,
      "priority": 6974,
      "unusual": 6975,
      "counted": 6976,
      "minority": 6977,
      "brut": 6978,
      "Sl": 6979,
      "Bernie": 6980,
      "acceptable": 6981,
      "downtown": 6982,
      "itals": 6983,
      "Rub": 6984,
      "inev": 6985,
      "Person": 6986,
      "negotiations": 6987,
      "democratic": 6988,
      "Emp": 6989,
      "perce": 6990,
      "thin": 6991,
      "roots": 6992,
      "Navy": 6993,
      "personnel": 6994,
      "prominent": 6995,
      "array": 6996,
      "mart": 6997,
      "explicit": 6998,
      "computers": 6999,
      "uine": 7000,
      "Development": 7001,
      "f8": 7002,
      "Action": 7003,
      "vised": 7004,
      "Education": 7005,
      "Ice": 7006,
      "ales": 7007,
      "sensitive": 7008,
      "thesis": 7009,
      "acceler": 7010,
      "areness": 7011,
      "ranked": 7012,
      "ATE": 7013,
      "toms": 7014,
      "discover": 7015,
      "moon": 7016,
      "covers": 7017,
      "adopted": 7018,
      "patterns": 7019,
      "cyber": 7020,
      "Rol": 7021,
      "Matthe": 7022,
      "mits": 7023,
      "component": 7024,
      "Rober": 7025,
      "esh": 7026,
      "Line": 7027,
      "140": 7028,
      "resulted": 7029,
      "130": 7030,
      "jury": 7031,
      "river": 7032,
      "Avenue": 7033,
      "contracts": 7034,
      "ampions": 7035,
      "SD": 7036,
      "hadn": 7037,
      "Lyn": 7038,
      "apparent": 7039,
      "Update": 7040,
      "contained": 7041,
      "Turkish": 7042,
      "veget": 7043,
      "scope": 7044,
      "clubs": 7045,
      "illed": 7046,
      "Jac": 7047,
      "Sho": 7048,
      "feelings": 7049,
      "reduction": 7050,
      "describes": 7051,
      "cig": 7052,
      "Zealand": 7053,
      "1996": 7054,
      "Atlanta": 7055,
      "ental": 7056,
      "containing": 7057,
      "distr": 7058,
      "god": 7059,
      "description": 7060,
      "label": 7061,
      "imper": 7062,
      "okie": 7063,
      "boards": 7064,
      "thick": 7065,
      "taxpay": 7066,
      "rarely": 7067,
      "Record": 7068,
      "recognized": 7069,
      "Related": 7070,
      "sanctions": 7071,
      "stun": 7072,
      "warrant": 7073,
      "everywhere": 7074,
      "producer": 7075,
      "iner": 7076,
      "Type": 7077,
      "iveness": 7078,
      "ighter": 7079,
      "sla": 7080,
      "loyal": 7081,
      "Liby": 7082,
      "permission": 7083,
      "uous": 7084,
      "advertising": 7085,
      "Ly": 7086,
      "gained": 7087,
      "iana": 7088,
      "Information": 7089,
      "Log": 7090,
      "Pass": 7091,
      "Tro": 7092,
      "Amendment": 7093,
      "interface": 7094,
      "settlement": 7095,
      "cameras": 7096,
      "implementation": 7097,
      "expectations": 7098,
      "boat": 7099,
      "walls": 7100,
      "scenario": 7101,
      "creates": 7102,
      "iped": 7103,
      "Event": 7104,
      "worthy": 7105,
      "Gul": 7106,
      "BE": 7107,
      "rolled": 7108,
      "arrange": 7109,
      "neck": 7110,
      "grounds": 7111,
      "serves": 7112,
      "UFC": 7113,
      "shortly": 7114,
      "practical": 7115,
      "counting": 7116,
      "falls": 7117,
      "1997": 7118,
      "tall": 7119,
      "ouch": 7120,
      "bec": 7121,
      "Patrick": 7122,
      "AI": 7123,
      "bind": 7124,
      "Num": 7125,
      "participate": 7126,
      "racist": 7127,
      "Was": 7128,
      "journalist": 7129,
      "detain": 7130,
      "End": 7131,
      "pir": 7132,
      "agric": 7133,
      "Community": 7134,
      "innov": 7135,
      "Know": 7136,
      "vy": 7137,
      "Allen": 7138,
      "genuine": 7139,
      "principle": 7140,
      "delay": 7141,
      "afted": 7142,
      "legitimate": 7143,
      "tone": 7144,
      "relief": 7145,
      "Email": 7146,
      "wonderful": 7147,
      "hide": 7148,
      "hitting": 7149,
      "saved": 7150,
      "crete": 7151,
      "liver": 7152,
      "gift": 7153,
      "700000000000015": 7154,
      "dozens": 7155,
      "Full": 7156,
      "counsel": 7157,
      "basketball": 7158,
      "extr": 7159,
      "ette": 7160,
      "sop": 7161,
      "thentic": 7162,
      "euro": 7163,
      "Ep": 7164,
      "vania": 7165,
      "ilton": 7166,
      "osex": 7167,
      "ALL": 7168,
      "Anthony": 7169,
      "fb": 7170,
      "poly": 7171,
      "memor": 7172,
      "philosophy": 7173,
      "Ale": 7174,
      "Bad": 7175,
      "syl": 7176,
      "losses": 7177,
      "legend": 7178,
      "Kingdom": 7179,
      "algorith": 7180,
      "march": 7181,
      "Roc": 7182,
      "IE": 7183,
      "stro": 7184,
      "MM": 7185,
      "mole": 7186,
      "asion": 7187,
      "banned": 7188,
      "quit": 7189,
      "grap": 7190,
      "McCain": 7191,
      "distur": 7192,
      "manufacturing": 7193,
      "airport": 7194,
      "Find": 7195,
      "Administration": 7196,
      "episodes": 7197,
      "indicated": 7198,
      "fled": 7199,
      "thy": 7200,
      "Jam": 7201,
      "endors": 7202,
      "chat": 7203,
      "visions": 7204,
      "deliber": 7205,
      "9d": 7206,
      "Main": 7207,
      "Former": 7208,
      "stup": 7209,
      "borrow": 7210,
      "indicate": 7211,
      "cession": 7212,
      "bra": 7213,
      "exclusive": 7214,
      "Everyone": 7215,
      "heading": 7216,
      "Queen": 7217,
      "RC": 7218,
      "convin": 7219,
      "unlike": 7220,
      "Hur": 7221,
      "Ted": 7222,
      "ethnic": 7223,
      "joining": 7224,
      "raw": 7225,
      "mel": 7226,
      "posing": 7227,
      "Fi": 7228,
      "Gun": 7229,
      "entering": 7230,
      "e0": 7231,
      "NOT": 7232,
      "Feb": 7233,
      "intellectual": 7234,
      "Columb": 7235,
      "males": 7236,
      "osexual": 7237,
      "behalf": 7238,
      "sis": 7239,
      "footage": 7240,
      "Christians": 7241,
      "Dy": 7242,
      "Cost": 7243,
      "horse": 7244,
      "profits": 7245,
      "exception": 7246,
      "apolog": 7247,
      "licens": 7248,
      "Lind": 7249,
      "struggling": 7250,
      "Flo": 7251,
      "Diego": 7252,
      "cannabis": 7253,
      "lessly": 7254,
      "destruction": 7255,
      "ora": 7256,
      "graduate": 7257,
      "lers": 7258,
      "haz": 7259,
      "flaw": 7260,
      "tackle": 7261,
      "stadium": 7262,
      "Conference": 7263,
      "shor": 7264,
      "uct": 7265,
      "external": 7266,
      "fing": 7267,
      "ucky": 7268,
      "dinner": 7269,
      "aska": 7270,
      "API": 7271,
      "1995": 7272,
      "Death": 7273,
      "Centre": 7274,
      "progressive": 7275,
      "GA": 7276,
      "normally": 7277,
      "Academy": 7278,
      "Think": 7279,
      "hired": 7280,
      "wine": 7281,
      "beliefs": 7282,
      "anna": 7283,
      "Bab": 7284,
      "sper": 7285,
      "frag": 7286,
      "nur": 7287,
      "Earlier": 7288,
      "convention": 7289,
      "bond": 7290,
      "Stone": 7291,
      "transform": 7292,
      "barely": 7293,
      "profession": 7294,
      "sin": 7295,
      "txt00006440000000000000000000007": 7296,
      "structures": 7297,
      "Ca": 7298,
      "160": 7299,
      "adequ": 7300,
      "quiet": 7301,
      "Family": 7302,
      "Dol": 7303,
      "MORE": 7304,
      "Ball": 7305,
      "pod": 7306,
      "bits": 7307,
      "________________": 7308,
      "astro": 7309,
      "Id": 7310,
      "deem": 7311,
      "filter": 7312,
      "roles": 7313,
      "gear": 7314,
      "movements": 7315,
      "Aud": 7316,
      "rific": 7317,
      "delivery": 7318,
      "mac": 7319,
      "Roy": 7320,
      "Medical": 7321,
      "farmers": 7322,
      "menu": 7323,
      "electronic": 7324,
      "ued": 7325,
      "gonna": 7326,
      "Sept": 7327,
      "sque": 7328,
      "Ker": 7329,
      "retired": 7330,
      "NSA": 7331,
      "Walker": 7332,
      "Spring": 7333,
      "burgh": 7334,
      "tribut": 7335,
      "achieved": 7336,
      "languages": 7337,
      "Six": 7338,
      "chant": 7339,
      "Conservative": 7340,
      "Point": 7341,
      "thrown": 7342,
      "credi": 7343,
      "Kansas": 7344,
      "stall": 7345,
      "ounce": 7346,
      "spin": 7347,
      "forever": 7348,
      "oh": 7349,
      "MB": 7350,
      "proportion": 7351,
      "terrorists": 7352,
      "recognition": 7353,
      "Golden": 7354,
      "listening": 7355,
      "timore": 7356,
      "Pu": 7357,
      "loud": 7358,
      "YO": 7359,
      "onet": 7360,
      "5d": 7361,
      "technique": 7362,
      "reviews": 7363,
      "seas": 7364,
      "Tun": 7365,
      "iary": 7366,
      "interviews": 7367,
      "Division": 7368,
      "deter": 7369,
      "igen": 7370,
      "Town": 7371,
      "hr": 7372,
      "5c": 7373,
      "Cameron": 7374,
      "roof": 7375,
      "Latin": 7376,
      "Hey": 7377,
      "settle": 7378,
      "ento": 7379,
      "closing": 7380,
      "bilities": 7381,
      "regulation": 7382,
      "Broad": 7383,
      "affili": 7384,
      "acks": 7385,
      "Beach": 7386,
      "9c": 7387,
      "ifest": 7388,
      "Cry": 7389,
      "dies": 7390,
      "conventional": 7391,
      "idespread": 7392,
      "Assad": 7393,
      "e8": 7394,
      "nominee": 7395,
      "udes": 7396,
      "framework": 7397,
      "Mars": 7398,
      "grid": 7399,
      "ownership": 7400,
      "Chair": 7401,
      "ingu": 7402,
      "Figure": 7403,
      "challenging": 7404,
      "Santa": 7405,
      "fruit": 7406,
      "smooth": 7407,
      "Box": 7408,
      "ultimate": 7409,
      "breaks": 7410,
      "reliable": 7411,
      "1st": 7412,
      "awareness": 7413,
      "Fun": 7414,
      "Fest": 7415,
      "Ag": 7416,
      "verage": 7417,
      "sugar": 7418,
      "lins": 7419,
      "Sure": 7420,
      "physic": 7421,
      "strategic": 7422,
      "UI": 7423,
      "ules": 7424,
      "convinced": 7425,
      "regist": 7426,
      "dynamic": 7427,
      "collapse": 7428,
      "Square": 7429,
      "5b": 7430,
      "ocean": 7431,
      "thread": 7432,
      "welfare": 7433,
      "Lef": 7434,
      "orbit": 7435,
      "rass": 7436,
      "athy": 7437,
      "Environment": 7438,
      "Pennsyl": 7439,
      "crypto": 7440,
      "Sem": 7441,
      "'.": 7442,
      "logic": 7443,
      "corporations": 7444,
      "Sams": 7445,
      "classified": 7446,
      "convicted": 7447,
      "vary": 7448,
      "hill": 7449,
      "representative": 7450,
      "Later": 7451,
      "compat": 7452,
      "Price": 7453,
      "genetic": 7454,
      "promises": 7455,
      "milk": 7456,
      "Freedom": 7457,
      "peak": 7458,
      "lucky": 7459,
      "hash": 7460,
      "Albert": 7461,
      "Engine": 7462,
      "fiscal": 7463,
      "Sus": 7464,
      "bars": 7465,
      "restrictions": 7466,
      "bail": 7467,
      "Austin": 7468,
      "inating": 7469,
      "Mess": 7470,
      "smoke": 7471,
      "suggesting": 7472,
      "Pit": 7473,
      "independence": 7474,
      "shore": 7475,
      "devast": 7476,
      "transgender": 7477,
      "rapidly": 7478,
      "alien": 7479,
      "liquid": 7480,
      "Anderson": 7481,
      "mers": 7482,
      "aka": 7483,
      "Hosp": 7484,
      "sorry": 7485,
      "tical": 7486,
      "overwhelming": 7487,
      "Baltimore": 7488,
      "usage": 7489,
      "coins": 7490,
      "viously": 7491,
      "Page": 7492,
      "ication": 7493,
      "equally": 7494,
      "tickets": 7495,
      "360": 7496,
      "lete": 7497,
      "Dave": 7498,
      "begun": 7499,
      "20th": 7500,
      "illness": 7501,
      "lu": 7502,
      "Xbox": 7503,
      "hen": 7504,
      "%,": 7505,
      "association": 7506,
      "Las": 7507,
      "Low": 7508,
      "invited": 7509,
      "Iranian": 7510,
      "noise": 7511,
      "Pot": 7512,
      "cker": 7513,
      "het": 7514,
      "connections": 7515,
      "riers": 7516,
      "rie": 7517,
      "nit": 7518,
      "paralle": 7519,
      "riots": 7520,
      "perior": 7521,
      "reducing": 7522,
      "2nd": 7523,
      "featuring": 7524,
      "akers": 7525,
      "icting": 7526,
      "notion": 7527,
      "Ku": 7528,
      "ja": 7529,
      "captain": 7530,
      "viewers": 7531,
      "discovery": 7532,
      "scores": 7533,
      "Sony": 7534,
      "Cit": 7535,
      "tab": 7536,
      "versus": 7537,
      "Review": 7538,
      "ouver": 7539,
      "widespread": 7540,
      "estimate": 7541,
      "Lewis": 7542,
      "Pennsylvania": 7543,
      "thon": 7544,
      "icking": 7545,
      "fantasy": 7546,
      "1990s": 7547,
      "sover": 7548,
      "usive": 7549,
      "throwing": 7550,
      "hardly": 7551,
      "Arabia": 7552,
      "documented": 7553,
      "Control": 7554,
      "contribute": 7555,
      "campaigns": 7556,
      "ridicul": 7557,
      "mont": 7558,
      "Base": 7559,
      "aded": 7560,
      "exceed": 7561,
      "Design": 7562,
      "asters": 7563,
      "9b": 7564,
      "Aff": 7565,
      "WA": 7566,
      "Liver": 7567,
      "eastern": 7568,
      "websites": 7569,
      "Hand": 7570,
      "performing": 7571,
      "tts": 7572,
      "soul": 7573,
      "ossil": 7574,
      "outing": 7575,
      "portr": 7576,
      "prepare": 7577,
      "alo": 7578,
      "carefully": 7579,
      "1994": 7580,
      "vital": 7581,
      "Samsung": 7582,
      "rhe": 7583,
      "graphics": 7584,
      "repair": 7585,
      "Age": 7586,
      "Five": 7587,
      "Sel": 7588,
      "unclear": 7589,
      "failing": 7590,
      "EST": 7591,
      "Sor": 7592,
      "spaces": 7593,
      "fro": 7594,
      "stupid": 7595,
      "Copy": 7596,
      "viewed": 7597,
      "Moon": 7598,
      "Ministry": 7599,
      "casual": 7600,
      "Execut": 7601,
      "hoc": 7602,
      "Vanc": 7603,
      "deputy": 7604,
      "legs": 7605,
      "ione": 7606,
      "statistics": 7607,
      "minds": 7608,
      "Cook": 7609,
      "sels": 7610,
      "Stri": 7611,
      "OD": 7612,
      "behaviour": 7613,
      "guarante": 7614,
      "Kenned": 7615,
      "Anim": 7616,
      "resource": 7617,
      "threatening": 7618,
      "jur": 7619,
      "initiative": 7620,
      "parame": 7621,
      "hydro": 7622,
      "fighter": 7623,
      "investigate": 7624,
      "iOS": 7625,
      "respectively": 7626,
      "Pict": 7627,
      "scandal": 7628,
      "involvement": 7629,
      "Guardian": 7630,
      "veland": 7631,
      "Associated": 7632,
      "papers": 7633,
      "rome": 7634,
      "deeper": 7635,
      "quote": 7636,
      "Vancouver": 7637,
      "Ban": 7638,
      "FF": 7639,
      "breath": 7640,
      "####": 7641,
      "aches": 7642,
      "Hope": 7643,
      "implemented": 7644,
      "600000000000015": 7645,
      "decent": 7646,
      "anybody": 7647,
      "promising": 7648,
      "ignore": 7649,
      "ols": 7650,
      "Museum": 7651,
      "VE": 7652,
      "tz": 7653,
      "Football": 7654,
      "Tok": 7655,
      "inf": 7656,
      "Massach": 7657,
      "collective": 7658,
      "hibition": 7659,
      "Greece": 7660,
      "substantial": 7661,
      "echo": 7662,
      "rocket": 7663,
      "lah": 7664,
      "unemployment": 7665,
      "thal": 7666,
      "00000000000000In": 7667,
      "settings": 7668,
      "lips": 7669,
      "reven": 7670,
      "Howard": 7671,
      "oured": 7672,
      "seed": 7673,
      "virus": 7674,
      "improvements": 7675,
      "touchdown": 7676,
      "tie": 7677,
      "barrel": 7678,
      "Massachuse": 7679,
      "icious": 7680,
      "Columbia": 7681,
      "complaints": 7682,
      "referring": 7683,
      "subjects": 7684,
      "inflation": 7685,
      "endum": 7686,
      "Revolution": 7687,
      "115": 7688,
      "Mos": 7689,
      "Andre": 7690,
      "Sab": 7691,
      "entertainment": 7692,
      "diversity": 7693,
      "tu": 7694,
      "attacking": 7695,
      "dramatic": 7696,
      "maps": 7697,
      "Lev": 7698,
      "dates": 7699,
      "Chel": 7700,
      "races": 7701,
      "Massachusetts": 7702,
      "bone": 7703,
      "intervention": 7704,
      "wages": 7705,
      "attached": 7706,
      "xx": 7707,
      "reci": 7708,
      "disappoint": 7709,
      "Fix": 7710,
      "1980s": 7711,
      "Stor": 7712,
      "tempt": 7713,
      "Nev": 7714,
      "Credit": 7715,
      "rural": 7716,
      "iversary": 7717,
      "tasks": 7718,
      "??": 7719,
      "iro": 7720,
      "Han": 7721,
      "ounced": 7722,
      "preser": 7723,
      "fallen": 7724,
      "unior": 7725,
      "azz": 7726,
      "aze": 7727,
      "samples": 7728,
      "tics": 7729,
      "enny": 7730,
      "Kennedy": 7731,
      "conspiracy": 7732,
      "assage": 7733,
      "improvement": 7734,
      "stake": 7735,
      "handling": 7736,
      "Ell": 7737,
      "Gaza": 7738,
      "Vegas": 7739,
      "olen": 7740,
      "recip": 7741,
      "recommended": 7742,
      "controversy": 7743,
      "Pent": 7744,
      "\")": 7745,
      "migration": 7746,
      "Justin": 7747,
      "publication": 7748,
      "neighbour": 7749,
      "ambit": 7750,
      "extend": 7751,
      "secre": 7752,
      "Bang": 7753,
      "panic": 7754,
      "iler": 7755,
      "spark": 7756,
      "Cleveland": 7757,
      "ikes": 7758,
      "UL": 7759,
      "Safe": 7760,
      "Tha": 7761,
      "handful": 7762,
      "Marvel": 7763,
      "medicine": 7764,
      "inois": 7765,
      "ffect": 7766,
      "attempting": 7767,
      "embarrass": 7768,
      "authentic": 7769,
      "swing": 7770,
      "gathered": 7771,
      "tracking": 7772,
      "uma": 7773,
      "vals": 7774,
      "boom": 7775,
      "nan": 7776,
      "AFP": 7777,
      "dance": 7778,
      "reader": 7779,
      "Som": 7780,
      "nest": 7781,
      "magn": 7782,
      "steel": 7783,
      "Atlantic": 7784,
      "trem": 7785,
      "purchased": 7786,
      "pump": 7787,
      "platforms": 7788,
      "activist": 7789,
      "discussions": 7790,
      "enormous": 7791,
      "actively": 7792,
      "missile": 7793,
      "testim": 7794,
      "nett": 7795,
      "ingred": 7796,
      "NATO": 7797,
      "Championship": 7798,
      "shoulder": 7799,
      "GT": 7800,
      "expanded": 7801,
      "humanity": 7802,
      "9a": 7803,
      "brothers": 7804,
      "Mountain": 7805,
      "suspected": 7806,
      "affairs": 7807,
      "jac": 7808,
      "beth": 7809,
      "Ak": 7810,
      "gains": 7811,
      "civilians": 7812,
      "tery": 7813,
      "addressed": 7814,
      "morrow": 7815,
      "visitors": 7816,
      "ura": 7817,
      "symptoms": 7818,
      "Illinois": 7819,
      "Final": 7820,
      "RT": 7821,
      "mary": 7822,
      "remarks": 7823,
      "mortal": 7824,
      "toxic": 7825,
      "chapter": 7826,
      "forest": 7827,
      "drama": 7828,
      "lowest": 7829,
      "choos": 7830,
      "yellow": 7831,
      "seemingly": 7832,
      "8d": 7833,
      "astron": 7834,
      "Being": 7835,
      "thir": 7836,
      "Intel": 7837,
      "tweeted": 7838,
      "itchen": 7839,
      "Mexican": 7840,
      "spiritual": 7841,
      "amid": 7842,
      "Da": 7843,
      "width": 7844,
      "Intelligence": 7845,
      "opinions": 7846,
      "tea": 7847,
      "Cho": 7848,
      "Stadium": 7849,
      "investigators": 7850,
      "Short": 7851,
      "femin": 7852,
      "silver": 7853,
      "Jonathan": 7854,
      "2020": 7855,
      "clothes": 7856,
      "entre": 7857,
      "horror": 7858,
      "eration": 7859,
      "waves": 7860,
      "Iraqi": 7861,
      "iny": 7862,
      "tomorrow": 7863,
      "asty": 7864,
      "Photos": 7865,
      "onso": 7866,
      "salary": 7867,
      "suits": 7868,
      "oft": 7869,
      "weets": 7870,
      "persist": 7871,
      "domain": 7872,
      "console": 7873,
      "titled": 7874,
      "Iron": 7875,
      "101": 7876,
      "investigating": 7877,
      "Magic": 7878,
      "Support": 7879,
      "virtually": 7880,
      "wrest": 7881,
      "involves": 7882,
      "withdraw": 7883,
      "bird": 7884,
      "stayed": 7885,
      "colors": 7886,
      "suspended": 7887,
      "CON": 7888,
      "resign": 7889,
      "divided": 7890,
      "burden": 7891,
      "consistently": 7892,
      "Below": 7893,
      "intendo": 7894,
      "checks": 7895,
      "nick": 7896,
      "protein": 7897,
      "bureau": 7898,
      "hob": 7899,
      "Unlike": 7900,
      "cler": 7901,
      "personality": 7902,
      "ballot": 7903,
      "threw": 7904,
      "depends": 7905,
      "assign": 7906,
      "waters": 7907,
      "transportation": 7908,
      "paint": 7909,
      "bacter": 7910,
      "advocates": 7911,
      "5a": 7912,
      "voter": 7913,
      "rical": 7914,
      "Sarah": 7915,
      "riot": 7916,
      "inquir": 7917,
      "Mrs": 7918,
      "coaches": 7919,
      "helpful": 7920,
      "Mun": 7921,
      "FI": 7922,
      "Quest": 7923,
      "Okla": 7924,
      "EP": 7925,
      "Ga": 7926,
      "Rather": 7927,
      "bee": 7928,
      "absence": 7929,
      "Similar": 7930,
      "providers": 7931,
      "Obam": 7932,
      "Liverpool": 7933,
      "HA": 7934,
      "Hospital": 7935,
      "Nintendo": 7936,
      "Sean": 7937,
      "bury": 7938,
      "export": 7939,
      "Psy": 7940,
      "careful": 7941,
      "Pres": 7942,
      "loans": 7943,
      "painting": 7944,
      "Pur": 7945,
      "180": 7946,
      "Left": 7947,
      "offices": 7948,
      "Refer": 7949,
      "350": 7950,
      "fossil": 7951,
      "sheet": 7952,
      "Indiana": 7953,
      "Alexander": 7954,
      "Table": 7955,
      "correctly": 7956,
      "Would": 7957,
      "protocol": 7958,
      "Utah": 7959,
      "xit": 7960,
      "efficiency": 7961,
      "Nic": 7962,
      "geon": 7963,
      "speaks": 7964,
      "settled": 7965,
      "1992": 7966,
      ".-": 7967,
      "attitude": 7968,
      "birds": 7969,
      "ifies": 7970,
      "premium": 7971,
      "oty": 7972,
      "bread": 7973,
      "Lau": 7974,
      "txt00006440000000000000000000014": 7975,
      "1000": 7976,
      "ria": 7977,
      "exit": 7978,
      "Friend": 7979,
      "Der": 7980,
      "Ruby": 7981,
      "jer": 7982,
      "Tra": 7983,
      "fantastic": 7984,
      "ifications": 7985,
      "Brow": 7986,
      "Pos": 7987,
      "Ontar": 7988,
      "lane": 7989,
      "cular": 7990,
      "Rem": 7991,
      "Technology": 7992,
      "joke": 7993,
      "Roberts": 7994,
      "noting": 7995,
      "Eag": 7996,
      "slo": 7997,
      "Cer": 7998,
      "brown": 7999,
      "105": 8000,
      "ranks": 8001,
      "dust": 8002,
      "Portland": 8003,
      "naturally": 8004,
      "Moham": 8005,
      "depression": 8006,
      "8b": 8007,
      "exem": 8008,
      "conservatives": 8009,
      "comedy": 8010,
      "shield": 8011,
      "upset": 8012,
      "cream": 8013,
      "innovation": 8014,
      "Bloom": 8015,
      "conversations": 8016,
      "elev": 8017,
      "Article": 8018,
      "MAN": 8019,
      "holes": 8020,
      "cot": 8021,
      "hu": 8022,
      "Treas": 8023,
      "improving": 8024,
      "tape": 8025,
      "Pa": 8026,
      "3rd": 8027,
      "8c": 8028,
      "replacement": 8029,
      "absor": 8030,
      "abol": 8031,
      "mini": 8032,
      "soil": 8033,
      "distributed": 8034,
      "Denver": 8035,
      "ili": 8036,
      "Corpor": 8037,
      "representing": 8038,
      "nell": 8039,
      "aron": 8040,
      "commonly": 8041,
      "shadow": 8042,
      "tern": 8043,
      "compass": 8044,
      "acknowledged": 8045,
      "rhetor": 8046,
      "margin": 8047,
      "prev": 8048,
      "Cow": 8049,
      "protecting": 8050,
      "musical": 8051,
      "neys": 8052,
      "!)": 8053,
      "Front": 8054,
      "pling": 8055,
      "phrase": 8056,
      "transactions": 8057,
      "defeated": 8058,
      "legacy": 8059,
      "incidents": 8060,
      "Wa": 8061,
      "scholar": 8062,
      "Pet": 8063,
      "eco": 8064,
      "Should": 8065,
      "cust": 8066,
      "Mit": 8067,
      "contributions": 8068,
      "Speaking": 8069,
      "innocent": 8070,
      "twenty": 8071,
      "racism": 8072,
      "amm": 8073,
      "guarantee": 8074,
      "Qa": 8075,
      "itary": 8076,
      "Anna": 8077,
      "Ox": 8078,
      "\".[": 8079,
      "quer": 8080,
      "appreciate": 8081,
      "Pho": 8082,
      "Silver": 8083,
      "Market": 8084,
      "judges": 8085,
      "1993": 8086,
      "encouraged": 8087,
      "Chelsea": 8088,
      "gig": 8089,
      "Children": 8090,
      "tum": 8091,
      "itionally": 8092,
      "Liberal": 8093,
      "logical": 8094,
      "''": 8095,
      "spots": 8096,
      "spokesperson": 8097,
      "skept": 8098,
      "fears": 8099,
      "Sweden": 8100,
      "urn": 8101,
      "Everything": 8102,
      "subsequent": 8103,
      "VA": 8104,
      "Custom": 8105,
      "flix": 8106,
      "MD": 8107,
      "Az": 8108,
      "receiver": 8109,
      "JP": 8110,
      "hyper": 8111,
      "visiting": 8112,
      "Ontario": 8113,
      "IO": 8114,
      "Steven": 8115,
      "wich": 8116,
      "bless": 8117,
      "mistakes": 8118,
      "festival": 8119,
      "measured": 8120,
      "len": 8121,
      "Warren": 8122,
      "Early": 8123,
      "entr": 8124,
      "arts": 8125,
      "guitar": 8126,
      "championship": 8127,
      "stolen": 8128,
      "temperatures": 8129,
      "accessible": 8130,
      "upgrade": 8131,
      "pound": 8132,
      "homeless": 8133,
      "encry": 8134,
      "bust": 8135,
      "ocol": 8136,
      "permit": 8137,
      "Empire": 8138,
      "referendum": 8139,
      "diverse": 8140,
      "Indust": 8141,
      "bub": 8142,
      "ignored": 8143,
      "monitoring": 8144,
      "abandoned": 8145,
      "studied": 8146,
      "EX": 8147,
      "aug": 8148,
      "guards": 8149,
      "Priv": 8150,
      "assessment": 8151,
      "balls": 8152,
      "cription": 8153,
      "equality": 8154,
      "responses": 8155,
      "Ren": 8156,
      "Hz": 8157,
      "void": 8158,
      "acare": 8159,
      "acquired": 8160,
      "\">": 8161,
      "functional": 8162,
      "membership": 8163,
      "Nothing": 8164,
      "Reddit": 8165,
      "Bridge": 8166,
      "copies": 8167,
      "printed": 8168,
      "pron": 8169,
      "Jere": 8170,
      "introduction": 8171,
      "Leon": 8172,
      "accomplish": 8173,
      "CB": 8174,
      "itage": 8175,
      "chron": 8176,
      "Brexit": 8177,
      "unions": 8178,
      "Level": 8179,
      "Gil": 8180,
      "rear": 8181,
      "provin": 8182,
      "appearances": 8183,
      "Galaxy": 8184,
      "FOR": 8185,
      "acid": 8186,
      "ramp": 8187,
      "eligible": 8188,
      "pton": 8189,
      "acking": 8190,
      "Oklahom": 8191,
      "forecast": 8192,
      "inge": 8193,
      "nights": 8194,
      "Governor": 8195,
      "literature": 8196,
      "lux": 8197,
      "annon": 8198,
      "grat": 8199,
      "400000000000015": 8200,
      "owns": 8201,
      "Ni": 8202,
      "Remember": 8203,
      "Mobile": 8204,
      "Beij": 8205,
      "lunch": 8206,
      "labe": 8207,
      "revers": 8208,
      "dump": 8209,
      "Total": 8210,
      "striking": 8211,
      "Graham": 8212,
      "fits": 8213,
      "intr": 8214,
      "Map": 8215,
      "letting": 8216,
      "Tes": 8217,
      "Netflix": 8218,
      "shopping": 8219,
      "Player": 8220,
      "blocked": 8221,
      "rescue": 8222,
      "cope": 8223,
      "revel": 8224,
      "html": 8225,
      "burning": 8226,
      "Obamacare": 8227,
      "cuss": 8228,
      "cow": 8229,
      "pig": 8230,
      "museum": 8231,
      "demonstrated": 8232,
      "bassador": 8233,
      "Edward": 8234,
      "tons": 8235,
      "passengers": 8236,
      "oblig": 8237,
      "midfield": 8238,
      "desc": 8239,
      "una": 8240,
      "riding": 8241,
      "Beijing": 8242,
      "Much": 8243,
      "answered": 8244,
      "scientist": 8245,
      "haust": 8246,
      "inction": 8247,
      "firing": 8248,
      "frequency": 8249,
      "memo": 8250,
      "smoking": 8251,
      "beauty": 8252,
      "deficit": 8253,
      "bold": 8254,
      "Kong": 8255,
      "Gary": 8256,
      "secondary": 8257,
      "ratio": 8258,
      "Download": 8259,
      "sequence": 8260,
      "Had": 8261,
      "gif": 8262,
      "oxy": 8263,
      "soccer": 8264,
      "ieties": 8265,
      "Carl": 8266,
      "900": 8267,
      "Dutch": 8268,
      "adap": 8269,
      "Things": 8270,
      "hire": 8271,
      "vig": 8272,
      "amb": 8273,
      "jok": 8274,
      "mathem": 8275,
      "Assem": 8276,
      "Online": 8277,
      "VP": 8278,
      "tourist": 8279,
      "Sound": 8280,
      "Mult": 8281,
      "artific": 8282,
      "Shad": 8283,
      "weekly": 8284,
      "Hamilton": 8285,
      "eding": 8286,
      "Rap": 8287,
      "universal": 8288,
      "manifest": 8289,
      "stages": 8290,
      "arrive": 8291,
      "Access": 8292,
      "Budd": 8293,
      "mock": 8294,
      "tips": 8295,
      "nomination": 8296,
      "lat": 8297,
      "persons": 8298,
      "Bruce": 8299,
      "kit": 8300,
      "concrete": 8301,
      "submit": 8302,
      "Oklahoma": 8303,
      "1970s": 8304,
      "hook": 8305,
      "txt00006440000000000000000000015": 8306,
      "semi": 8307,
      "transit": 8308,
      "Therefore": 8309,
      "introduce": 8310,
      "politically": 8311,
      "affordable": 8312,
      "Peters": 8313,
      "Uber": 8314,
      "sections": 8315,
      "Lis": 8316,
      "Local": 8317,
      "Bureau": 8318,
      "Rs": 8319,
      "pup": 8320,
      "pressing": 8321,
      "Paren": 8322,
      "circle": 8323,
      "targeting": 8324,
      "Syd": 8325,
      "static": 8326,
      "supplies": 8327,
      "mechanism": 8328,
      "Eliza": 8329,
      "logo": 8330,
      "berry": 8331,
      "idi": 8332,
      "ials": 8333,
      "Belg": 8334,
      "okay": 8335,
      "Philipp": 8336,
      "proposals": 8337,
      "Beng": 8338,
      "modu": 8339,
      "hockey": 8340,
      "headquarters": 8341,
      "Award": 8342,
      "haul": 8343,
      "jan": 8344,
      "insisted": 8345,
      "Could": 8346,
      "comprehensive": 8347,
      "pill": 8348,
      "orn": 8349,
      "shops": 8350,
      "capabilities": 8351,
      "UP": 8352,
      "tens": 8353,
      "Tax": 8354,
      "Olympic": 8355,
      "replied": 8356,
      "BB": 8357,
      "uted": 8358,
      "KE": 8359,
      "Spec": 8360,
      "170": 8361,
      "clude": 8362,
      "criticized": 8363,
      "wars": 8364,
      "Maryland": 8365,
      "Morris": 8366,
      "Harvard": 8367,
      "popularity": 8368,
      "dominant": 8369,
      "hoped": 8370,
      "Batman": 8371,
      "Auto": 8372,
      "heroes": 8373,
      "1950": 8374,
      "Mach": 8375,
      "iley": 8376,
      "compare": 8377,
      "Carter": 8378,
      "anne": 8379,
      "Block": 8380,
      "bors": 8381,
      "vit": 8382,
      "programme": 8383,
      "universities": 8384,
      "Simon": 8385,
      "brilli": 8386,
      "orate": 8387,
      "chicken": 8388,
      "eing": 8389,
      "cigare": 8390,
      "Vice": 8391,
      "Capital": 8392,
      "kilome": 8393,
      "Dog": 8394,
      "populations": 8395,
      "icop": 8396,
      "releases": 8397,
      "Murray": 8398,
      "vous": 8399,
      "Rac": 8400,
      "Vill": 8401,
      "courage": 8402,
      "veterans": 8403,
      "enix": 8404,
      "survival": 8405,
      "Gi": 8406,
      "Dur": 8407,
      "Crime": 8408,
      "swim": 8409,
      "Until": 8410,
      "archy": 8411,
      "eign": 8412,
      "fate": 8413,
      "Ark": 8414,
      "chest": 8415,
      "entitled": 8416,
      "usalem": 8417,
      "abroad": 8418,
      "urged": 8419,
      "requested": 8420,
      "contrad": 8421,
      "mans": 8422,
      "presum": 8423,
      "Consider": 8424,
      "shame": 8425,
      "dub": 8426,
      "dismissed": 8427,
      "centers": 8428,
      "senator": 8429,
      "predicted": 8430,
      "Qaeda": 8431,
      "112": 8432,
      "Ultim": 8433,
      "presidency": 8434,
      "Represent": 8435,
      "Marx": 8436,
      "Lt": 8437,
      "drove": 8438,
      "gross": 8439,
      "confront": 8440,
      "assigned": 8441,
      "sians": 8442,
      "landscape": 8443,
      "whenever": 8444,
      "Jerusalem": 8445,
      "loose": 8446,
      "1991": 8447,
      "Trade": 8448,
      "Morgan": 8449,
      "satellite": 8450,
      "BR": 8451,
      "heim": 8452,
      "pointing": 8453,
      "documentary": 8454,
      "Case": 8455,
      "Official": 8456,
      "objective": 8457,
      "Natur": 8458,
      "Rest": 8459,
      "Ka": 8460,
      "Captain": 8461,
      "reverse": 8462,
      "exhaust": 8463,
      "umes": 8464,
      "pursue": 8465,
      "monthly": 8466,
      "anny": 8467,
      "Scient": 8468,
      "Moreover": 8469,
      "retirement": 8470,
      "Buy": 8471,
      "thetic": 8472,
      "Si": 8473,
      "enez": 8474,
      "module": 8475,
      "banking": 8476,
      "designs": 8477,
      "congressional": 8478,
      "irts": 8479,
      "bias": 8480,
      "arbit": 8481,
      "windows": 8482,
      "wealthy": 8483,
      "8a": 8484,
      "twist": 8485,
      "ultane": 8486,
      "streaming": 8487,
      "pocket": 8488,
      "replic": 8489,
      "maintained": 8490,
      "voices": 8491,
      "quoted": 8492,
      "MC": 8493,
      "Bible": 8494,
      "ika": 8495,
      "Chap": 8496,
      "atre": 8497,
      "extract": 8498,
      "eu": 8499,
      "wider": 8500,
      "Change": 8501,
      "tower": 8502,
      "Produ": 8503,
      "BL": 8504,
      "remarkable": 8505,
      "jet": 8506,
      "anxiety": 8507,
      "inches": 8508,
      "Leader": 8509,
      "recall": 8510,
      "knee": 8511,
      "Cro": 8512,
      "stepped": 8513,
      "violation": 8514,
      "XX": 8515,
      "qualified": 8516,
      "disorder": 8517,
      "mph": 8518,
      "ctr": 8519,
      "Sat": 8520,
      "channels": 8521,
      "spokeswoman": 8522,
      "prisoners": 8523,
      "demanding": 8524,
      "Kick": 8525,
      "architect": 8526,
      "Len": 8527,
      "pipeline": 8528,
      "Charlie": 8529,
      "Scottish": 8530,
      "testimony": 8531,
      "resem": 8532,
      "thorough": 8533,
      "Michel": 8534,
      "gaining": 8535,
      "nie": 8536,
      "acre": 8537,
      "producers": 8538,
      "submitted": 8539,
      "Vietnam": 8540,
      "landing": 8541,
      "deny": 8542,
      "entrepre": 8543,
      "odds": 8544,
      "tha": 8545,
      "sustainable": 8546,
      "athletes": 8547,
      "outrage": 8548,
      "representatives": 8549,
      "Berlin": 8550,
      "tenance": 8551,
      "restaurants": 8552,
      "bonus": 8553,
      "questioned": 8554,
      "approached": 8555,
      "Tennes": 8556,
      "accus": 8557,
      "Tai": 8558,
      "hosted": 8559,
      "harassment": 8560,
      "Abu": 8561,
      "crush": 8562,
      "Bri": 8563,
      "autonom": 8564,
      "Store": 8565,
      "Digital": 8566,
      "beating": 8567,
      "salt": 8568,
      "Pier": 8569,
      "tactics": 8570,
      "rolls": 8571,
      "aga": 8572,
      "focusing": 8573,
      "organic": 8574,
      "unexpected": 8575,
      "stability": 8576,
      "kers": 8577,
      "propaganda": 8578,
      "********": 8579,
      "dying": 8580,
      "Cab": 8581,
      "rations": 8582,
      "bian": 8583,
      "ranking": 8584,
      "Sydney": 8585,
      "overseas": 8586,
      "fault": 8587,
      "childhood": 8588,
      "Hell": 8589,
      "experiments": 8590,
      "175": 8591,
      "generations": 8592,
      "Clark": 8593,
      "jun": 8594,
      "Sav": 8595,
      "relax": 8596,
      "Nazi": 8597,
      "celebrate": 8598,
      "Hong": 8599,
      "errors": 8600,
      "surprisingly": 8601,
      "grave": 8602,
      "Yemen": 8603,
      "Others": 8604,
      "Var": 8605,
      "anniversary": 8606,
      "ila": 8607,
      "dominated": 8608,
      "ahu": 8609,
      "MI": 8610,
      "legislative": 8611,
      "investigations": 8612,
      "ckets": 8613,
      "tables": 8614,
      "savings": 8615,
      "surely": 8616,
      "differently": 8617,
      "preparing": 8618,
      "household": 8619,
      "healthcare": 8620,
      "ouri": 8621,
      "sized": 8622,
      "picking": 8623,
      "aus": 8624,
      "ratings": 8625,
      "HO": 8626,
      "Recent": 8627,
      "Grant": 8628,
      "picks": 8629,
      "consideration": 8630,
      "argues": 8631,
      "ologists": 8632,
      "genes": 8633,
      "enjo": 8634,
      "Dick": 8635,
      "repeat": 8636,
      "boxes": 8637,
      "Ross": 8638,
      "fortunate": 8639,
      "Instag": 8640,
      "tremend": 8641,
      "rounds": 8642,
      "athers": 8643,
      "silence": 8644,
      "meal": 8645,
      "consent": 8646,
      "ashing": 8647,
      "clinical": 8648,
      "Publ": 8649,
      "Prov": 8650,
      "tube": 8651,
      "civilian": 8652,
      "ashes": 8653,
      "dating": 8654,
      "f9": 8655,
      "escal": 8656,
      "Palestinians": 8657,
      "Gulf": 8658,
      "Order": 8659,
      "hopefully": 8660,
      "arguing": 8661,
      "ICE": 8662,
      "inser": 8663,
      "broader": 8664,
      "DV": 8665,
      "vet": 8666,
      "realistic": 8667,
      "113": 8668,
      "opens": 8669,
      "SN": 8670,
      "Arsen": 8671,
      "stron": 8672,
      "Jen": 8673,
      "phenomenon": 8674,
      "consensus": 8675,
      "Dragon": 8676,
      "ala": 8677,
      "mortg": 8678,
      "hatt": 8679,
      "Trust": 8680,
      "deadly": 8681,
      "Instagram": 8682,
      "aired": 8683,
      "Assembly": 8684,
      "EPA": 8685,
      "trillion": 8686,
      "calm": 8687,
      "Fred": 8688,
      "persu": 8689,
      "Matthew": 8690,
      "execution": 8691,
      "Bag": 8692,
      "atar": 8693,
      "bis": 8694,
      "Hub": 8695,
      "reveals": 8696,
      "instructions": 8697,
      "torture": 8698,
      "orious": 8699,
      "puzz": 8700,
      "b6": 8701,
      "ocolate": 8702,
      "cure": 8703,
      "faction": 8704,
      "reforms": 8705,
      "cheese": 8706,
      "assass": 8707,
      "awarded": 8708,
      "shipping": 8709,
      "asting": 8710,
      "trait": 8711,
      "19th": 8712,
      "ira": 8713,
      "promoting": 8714,
      "ceremony": 8715,
      "precisely": 8716,
      "smartphone": 8717,
      "sher": 8718,
      "newsletter": 8719,
      "stored": 8720,
      "architecture": 8721,
      "citation": 8722,
      "Third": 8723,
      "gathering": 8724,
      "cooperation": 8725,
      "imposed": 8726,
      "TER": 8727,
      "oms": 8728,
      "emerging": 8729,
      "ique": 8730,
      "Na": 8731,
      "expanding": 8732,
      "tonight": 8733,
      "Mail": 8734,
      "1989": 8735,
      "entity": 8736,
      "sorts": 8737,
      "categories": 8738,
      "cam": 8739,
      "analyst": 8740,
      "blockchain": 8741,
      "rookie": 8742,
      "borders": 8743,
      "drone": 8744,
      "staying": 8745,
      "Cloud": 8746,
      "Management": 8747,
      "Gordon": 8748,
      "gut": 8749,
      "Elizabeth": 8750,
      "physically": 8751,
      "Move": 8752,
      "distingu": 8753,
      "prosecutors": 8754,
      "bun": 8755,
      "Thompson": 8756,
      "bother": 8757,
      "b4": 8758,
      "Sud": 8759,
      "Comey": 8760,
      "Oakland": 8761,
      "rows": 8762,
      "smile": 8763,
      "importantly": 8764,
      "Executive": 8765,
      "simultane": 8766,
      "citing": 8767,
      "fers": 8768,
      "dialogue": 8769,
      "transaction": 8770,
      "difficulty": 8771,
      "stere": 8772,
      "superior": 8773,
      "highlights": 8774,
      "izer": 8775,
      "135": 8776,
      "isons": 8777,
      "117": 8778,
      "Wol": 8779,
      "deserve": 8780,
      "struggled": 8781,
      "interpre": 8782,
      "therapy": 8783,
      "Libya": 8784,
      "Pers": 8785,
      "MLS": 8786,
      "TON": 8787,
      "whereas": 8788,
      "din": 8789,
      "Model": 8790,
      "demonstrate": 8791,
      "arity": 8792,
      "poison": 8793,
      "Rou": 8794,
      "insu": 8795,
      "managing": 8796,
      "Tennessee": 8797,
      "Sess": 8798,
      "procedure": 8799,
      "Cel": 8800,
      "trials": 8801,
      "labour": 8802,
      "greatly": 8803,
      "Hawai": 8804,
      "iano": 8805,
      "PL": 8806,
      "Based": 8807,
      "meaningful": 8808,
      "gel": 8809,
      "playoffs": 8810,
      "drives": 8811,
      "114": 8812,
      "Hon": 8813,
      "aer": 8814,
      "sons": 8815,
      "damaged": 8816,
      "enthusi": 8817,
      "strategies": 8818,
      "wanting": 8819,
      "ishop": 8820,
      "olds": 8821,
      "occupied": 8822,
      "assumed": 8823,
      "Andy": 8824,
      "recipe": 8825,
      "ifer": 8826,
      "Alan": 8827,
      "contacted": 8828,
      "Festival": 8829,
      "116": 8830,
      "js": 8831,
      "eases": 8832,
      "moval": 8833,
      "economics": 8834,
      "portation": 8835,
      "Hero": 8836,
      "capitalism": 8837,
      "worn": 8838,
      "omed": 8839,
      "wounded": 8840,
      "Additionally": 8841,
      "GDP": 8842,
      "participation": 8843,
      "jar": 8844,
      "indicates": 8845,
      "MR": 8846,
      "racing": 8847,
      "stops": 8848,
      "Furthermore": 8849,
      "intellig": 8850,
      "butter": 8851,
      "aler": 8852,
      "Det": 8853,
      "speaker": 8854,
      "endorse": 8855,
      "executives": 8856,
      "facilit": 8857,
      "aire": 8858,
      "moderate": 8859,
      "Cas": 8860,
      "igate": 8861,
      "planes": 8862,
      "Ya": 8863,
      "kg": 8864,
      "representation": 8865,
      "Subscri": 8866,
      "contribution": 8867,
      "enabled": 8868,
      "implications": 8869,
      "umin": 8870,
      "sweep": 8871,
      "utility": 8872,
      "escap": 8873,
      "competing": 8874,
      "enhance": 8875,
      "rab": 8876,
      "Aaron": 8877,
      "SL": 8878,
      "uten": 8879,
      "ministry": 8880,
      "divor": 8881,
      "spectrum": 8882,
      "Russell": 8883,
      "posting": 8884,
      "backing": 8885,
      "Cooper": 8886,
      "angel": 8887,
      "apolis": 8888,
      "Affairs": 8889,
      "Aren": 8890,
      "donations": 8891,
      "Harper": 8892,
      "Wi": 8893,
      "addresses": 8894,
      "attractive": 8895,
      "precedented": 8896,
      "tired": 8897,
      "educational": 8898,
      "fined": 8899,
      "gene": 8900,
      "Sex": 8901,
      "muscle": 8902,
      "uth": 8903,
      "Kentucky": 8904,
      "cents": 8905,
      "migrants": 8906,
      "eager": 8907,
      "setup": 8908,
      "ultural": 8909,
      "arre": 8910,
      "Les": 8911,
      "Bren": 8912,
      "Won": 8913,
      "dispute": 8914,
      "openly": 8915,
      "thood": 8916,
      "Cra": 8917,
      "substance": 8918,
      "frequent": 8919,
      "centuries": 8920,
      "104": 8921,
      "Economic": 8922,
      "filling": 8923,
      "checked": 8924,
      "icket": 8925,
      "Form": 8926,
      "Date": 8927,
      "variable": 8928,
      "Pitts": 8929,
      "packed": 8930,
      "clothing": 8931,
      "investments": 8932,
      "opher": 8933,
      "memories": 8934,
      "Job": 8935,
      "Ti": 8936,
      "signature": 8937,
      "genre": 8938,
      "judgment": 8939,
      "Ther": 8940,
      "Anti": 8941,
      "000000000000145": 8942,
      "consciousness": 8943,
      "guidelines": 8944,
      "arc": 8945,
      "bottle": 8946,
      "ucks": 8947,
      "Pentagon": 8948,
      "Clear": 8949,
      "charity": 8950,
      "tut": 8951,
      "Future": 8952,
      "foods": 8953,
      "Hart": 8954,
      "studying": 8955,
      "Jean": 8956,
      "stamp": 8957,
      "***": 8958,
      "mood": 8959,
      "passage": 8960,
      "Nel": 8961,
      "Yan": 8962,
      "lib": 8963,
      "grapher": 8964,
      "suspects": 8965,
      "presentation": 8966,
      "sovereign": 8967,
      "max": 8968,
      "Jacob": 8969,
      "agreements": 8970,
      "regulatory": 8971,
      "Khan": 8972,
      "perceived": 8973,
      "Phoenix": 8974,
      "Text": 8975,
      "shaped": 8976,
      "custody": 8977,
      "Arm": 8978,
      "defending": 8979,
      "Dor": 8980,
      "searching": 8981,
      "Wales": 8982,
      "ilder": 8983,
      "managers": 8984,
      "ketch": 8985,
      "beach": 8986,
      "Charlot": 8987,
      "sixth": 8988,
      "battles": 8989,
      "leans": 8990,
      "WAT": 8991,
      "uniform": 8992,
      "Put": 8993,
      "unprecedented": 8994,
      "Channel": 8995,
      "surviv": 8996,
      "Fant": 8997,
      "Arsenal": 8998,
      "psychological": 8999,
      "sci": 9000,
      "ression": 9001,
      "integration": 9002,
      "corn": 9003,
      "vertisements": 9004,
      "kitchen": 9005,
      "Library": 9006,
      "isters": 9007,
      "theories": 9008,
      "bullet": 9009,
      "dropping": 9010,
      "industries": 9011,
      "timing": 9012,
      "Cole": 9013,
      "charging": 9014,
      "homosexual": 9015,
      "Band": 9016,
      "followers": 9017,
      "Doctor": 9018,
      "c4": 9019,
      "rection": 9020,
      "discussing": 9021,
      "appearing": 9022,
      "True": 9023,
      "123": 9024,
      "ART": 9025,
      "forum": 9026,
      "marine": 9027,
      "ridiculous": 9028,
      "coaching": 9029,
      "sive": 9030,
      "embed": 9031,
      "casting": 9032,
      "glad": 9033,
      "Nav": 9034,
      "Word": 9035,
      "e9": 9036,
      "modified": 9037,
      "EA": 9038,
      "recruit": 9039,
      "b7": 9040,
      "diseases": 9041,
      "kee": 9042,
      "Jeremy": 9043,
      "hoo": 9044,
      "Ocean": 9045,
      "Venez": 9046,
      "240": 9047,
      "impression": 9048,
      "rebels": 9049,
      "slide": 9050,
      "cott": 9051,
      "itol": 9052,
      "hosts": 9053,
      "fights": 9054,
      "Editor": 9055,
      "---": 9056,
      "arrival": 9057,
      "pulling": 9058,
      "tale": 9059,
      "walks": 9060,
      "FS": 9061,
      "publishing": 9062,
      "fool": 9063,
      "underlying": 9064,
      "creatures": 9065,
      "fabric": 9066,
      "netic": 9067,
      "adventure": 9068,
      "skip": 9069,
      "Nu": 9070,
      "colour": 9071,
      "riors": 9072,
      "Ol": 9073,
      "preferred": 9074,
      "topics": 9075,
      "Happ": 9076,
      "extraordinary": 9077,
      "statist": 9078,
      "c6": 9079,
      "pharm": 9080,
      "Simp": 9081,
      "Ext": 9082,
      "whis": 9083,
      "perception": 9084,
      "subscribe": 9085,
      "bands": 9086,
      "oid": 9087,
      "principal": 9088,
      "punishment": 9089,
      "yer": 9090,
      "rhetoric": 9091,
      "adequate": 9092,
      "biological": 9093,
      "Ri": 9094,
      "gence": 9095,
      "Bos": 9096,
      "Tali": 9097,
      "lando": 9098,
      "anno": 9099,
      "beings": 9100,
      "igenous": 9101,
      "towns": 9102,
      "scrutin": 9103,
      "engineer": 9104,
      "Rome": 9105,
      "ications": 9106,
      "oto": 9107,
      "sacrif": 9108,
      "agu": 9109,
      "txt0000644000000000000000000002": 9110,
      "nod": 9111,
      "explaining": 9112,
      "ske": 9113,
      "Reagan": 9114,
      "Winter": 9115,
      "loves": 9116,
      "Holy": 9117,
      "Tan": 9118,
      "pollution": 9119,
      "fatal": 9120,
      "stig": 9121,
      "interaction": 9122,
      "Bes": 9123,
      "Venezuel": 9124,
      "Ott": 9125,
      "procedures": 9126,
      "engineers": 9127,
      "Looking": 9128,
      "icate": 9129,
      "exerc": 9130,
      "everyday": 9131,
      "Montreal": 9132,
      "mons": 9133,
      "talented": 9134,
      "Delhi": 9135,
      "commander": 9136,
      "Buff": 9137,
      "parad": 9138,
      "Wolf": 9139,
      "Univers": 9140,
      "fires": 9141,
      "scratch": 9142,
      "liest": 9143,
      "Antonio": 9144,
      "anged": 9145,
      "agr": 9146,
      "aching": 9147,
      "helicop": 9148,
      "enger": 9149,
      "Tesla": 9150,
      "Tel": 9151,
      "hospitals": 9152,
      "Tam": 9153,
      "Stock": 9154,
      "Respon": 9155,
      "segment": 9156,
      "evident": 9157,
      "trends": 9158,
      "Film": 9159,
      "f5": 9160,
      "Mas": 9161,
      "brush": 9162,
      "Try": 9163,
      "reserved": 9164,
      "adviser": 9165,
      "Brooklyn": 9166,
      "removal": 9167,
      "Obviously": 9168,
      "partly": 9169,
      "sessions": 9170,
      "acknowledge": 9171,
      "dismiss": 9172,
      "Cli": 9173,
      "references": 9174,
      "tweets": 9175,
      "Non": 9176,
      "pleased": 9177,
      "shoes": 9178,
      "Train": 9179,
      "Creat": 9180,
      "Standard": 9181,
      "Tw": 9182,
      "500000000000015": 9183,
      "Interest": 9184,
      "nose": 9185,
      "alt": 9186,
      "Pope": 9187,
      "acon": 9188,
      "requirement": 9189,
      "Hop": 9190,
      "hanging": 9191,
      "Independent": 9192,
      "cognitive": 9193,
      "billions": 9194,
      "fleet": 9195,
      "clip": 9196,
      "maintenance": 9197,
      "Continue": 9198,
      "nationally": 9199,
      "periods": 9200,
      "Very": 9201,
      "badly": 9202,
      "brilliant": 9203,
      "Adams": 9204,
      "Orlando": 9205,
      "dose": 9206,
      "sentenced": 9207,
      "killer": 9208,
      "requiring": 9209,
      "elder": 9210,
      "priest": 9211,
      "4th": 9212,
      "icipal": 9213,
      "carto": 9214,
      "PT": 9215,
      "restricted": 9216,
      "Mind": 9217,
      "invasion": 9218,
      "diction": 9219,
      "\":\"": 9220,
      "yeah": 9221,
      "anonymous": 9222,
      "signals": 9223,
      "strengthen": 9224,
      "rice": 9225,
      "styles": 9226,
      "theore": 9227,
      "Coal": 9228,
      "dreams": 9229,
      "106": 9230,
      "checking": 9231,
      "Climate": 9232,
      "mud": 9233,
      "comics": 9234,
      "Round": 9235,
      "outlets": 9236,
      "shocked": 9237,
      "Pow": 9238,
      "Psych": 9239,
      "outed": 9240,
      "prize": 9241,
      "Area": 9242,
      "Abd": 9243,
      "concepts": 9244,
      "inity": 9245,
      "Craig": 9246,
      "mystery": 9247,
      "compensation": 9248,
      "Sheriff": 9249,
      "Gab": 9250,
      "iller": 9251,
      "Missouri": 9252,
      "biz": 9253,
      "JavaScript": 9254,
      "ulating": 9255,
      "AB": 9256,
      "256": 9257,
      "associate": 9258,
      "lineup": 9259,
      "criter": 9260,
      "overcome": 9261,
      "disappointed": 9262,
      "Marine": 9263,
      "ranging": 9264,
      "deployed": 9265,
      "convince": 9266,
      "authorized": 9267,
      "aims": 9268,
      "dones": 9269,
      "iki": 9270,
      "dramatically": 9271,
      "pleasure": 9272,
      "blocking": 9273,
      "operated": 9274,
      "Hitler": 9275,
      "mice": 9276,
      "pour": 9277,
      "carries": 9278,
      "ffe": 9279,
      "lifetime": 9280,
      "UST": 9281,
      "Place": 9282,
      "deadline": 9283,
      "wet": 9284,
      "Christopher": 9285,
      "cycling": 9286,
      "127": 9287,
      "eh": 9288,
      "occurs": 9289,
      "eliminate": 9290,
      "notable": 9291,
      "xy": 9292,
      "weakness": 9293,
      "SEC": 9294,
      "ument": 9295,
      "b3": 9296,
      "Ven": 9297,
      "constrain": 9298,
      "Dream": 9299,
      "103": 9300,
      "revolutionary": 9301,
      "umps": 9302,
      "advent": 9303,
      "parency": 9304,
      "jihad": 9305,
      "Spir": 9306,
      "eggs": 9307,
      "USB": 9308,
      "artificial": 9309,
      "amendment": 9310,
      "stom": 9311,
      "abstr": 9312,
      "witnesses": 9313,
      "philosoph": 9314,
      "Within": 9315,
      "approaches": 9316,
      "inspe": 9317,
      "agger": 9318,
      "hibited": 9319,
      "asset": 9320,
      "diplomatic": 9321,
      "insight": 9322,
      "contemporary": 9323,
      "cheaper": 9324,
      "Steel": 9325,
      "recommendations": 9326,
      "snap": 9327,
      "}}": 9328,
      "shelter": 9329,
      "Duke": 9330,
      "ativity": 9331,
      "physics": 9332,
      "sits": 9333,
      "displayed": 9334,
      "Jane": 9335,
      "convenient": 9336,
      "prompted": 9337,
      "Crit": 9338,
      "recept": 9339,
      "Pittsburgh": 9340,
      "cats": 9341,
      "reviewed": 9342,
      "hawks": 9343,
      "resolve": 9344,
      "inquiry": 9345,
      "analysts": 9346,
      "constitu": 9347,
      "automatic": 9348,
      "orous": 9349,
      "unve": 9350,
      "txt00006440000000000000000000016": 9351,
      "collaboration": 9352,
      "sink": 9353,
      "Clo": 9354,
      "encouraging": 9355,
      "File": 9356,
      "Ta": 9357,
      "communicate": 9358,
      "Aw": 9359,
      "libr": 9360,
      "belt": 9361,
      "Argent": 9362,
      "mu": 9363,
      "107": 9364,
      "configuration": 9365,
      "decor": 9366,
      "BN": 9367,
      "instances": 9368,
      "drum": 9369,
      "uan": 9370,
      "landed": 9371,
      "00000000000000This": 9372,
      "Doc": 9373,
      "royal": 9374,
      "iden": 9375,
      "Reserve": 9376,
      "1960s": 9377,
      "neighbors": 9378,
      "couples": 9379,
      "hunting": 9380,
      "Wy": 9381,
      "{\\": 9382,
      "izza": 9383,
      "Step": 9384,
      "traged": 9385,
      "Section": 9386,
      "Abr": 9387,
      "provision": 9388,
      "constructed": 9389,
      "\",\"": 9390,
      "Jun": 9391,
      "Brew": 9392,
      "Manager": 9393,
      "demanded": 9394,
      "deemed": 9395,
      "Nevada": 9396,
      "aco": 9397,
      "xture": 9398,
      "designer": 9399,
      "sav": 9400,
      "guests": 9401,
      "accum": 9402,
      "occasionally": 9403,
[...]
